{"\u57fa": 1825, "\u7f3a": 5375, "##\u308d\u3046": 12792, "\u7b03": 5005, "\u7272": 4291, "\u70ba": 4158, "##ud": 9849, "\u6fb3": 4078, "855": 10998, "\u5dfe": 2353, "\u25b2topmar": 10172, "\u65ce": 3183, "##\u518f": 14144, "##\u5c9a": 15326, "##\u60d1": 15720, "2400": 9851, "\u534e": 1290, "c2": 11854, "\ufe5e": 8010, "##ark": 11153, "##hu": 9670, "quot": 10733, "897": 8747, "\u5aa7": 2058, "194": 10457, "\u918b": 7005, "\u7b51": 5029, "##tp": 10880, "##ep": 11613, "##\u788d": 17866, "##\u5c98": 15324, "\u67cf": 3377, "##\u7f08": 18407, "##\u8865": 19190, "\u68ad": 3460, "##\u6cf1": 16863, "sohu": 12610, "\u96dc": 7429, "idea": 11834, "##\uff0b": 11267, "##sn": 12480, "\u9a45": 7705, "\u5d06": 2299, "##\u6176": 15780, "##\u629a": 15893, "##017": 8710, "##\u9e22": 20941, "\u6690": 3263, "\u6a3a": 3573, "##\u7bad": 18112, "[unused10]": 10, "##\uff55": 21098, "##{": 13344, "\u547c": 1461, "\u7b8d": 5045, "##\u87fe": 19160, "##\uff5d": 21102, "outlet": 10071, "\u5c4a": 2237, "\u5712": 1754, "\u809d": 5498, "mike": 10021, "##ments": 10444, "\u7f57": 5384, "\u7ffc": 5437, "##\u598a": 15026, "##\u7dba": 18267, "\u8f9b": 6789, "##\u8679": 19061, "##\u8aa1": 19354, "\u6ca6": 3770, "\u4f0a": 823, "yumi": 11697, "##\u9396": 20172, "##\u9db4": 20931, "\u6208": 2762, "\u6c17": 3700, "\u9c32": 7815, "x1": 9566, "##\u8d2a": 19633, "\u7c64": 5097, "##\u950c": 20284, "##\u55d3": 14681, "\u7bc7": 5063, "##\u3087": 13677, "##lton": 10377, "##\u5409": 14452, "volvo": 11048, "\u7ee1": 5321, "##tm": 10774, "\u7599": 4546, "##\u6d04": 16873, "##\u87af": 19145, "\u53c3": 1347, "\u94dd": 7199, "\u5bc7": 2167, "mama": 13186, "\u75c5": 4567, "\u8885": 6148, "##\u947e": 20206, "\u8c0e": 6453, "\u5f7b": 2515, "\u5e30": 2378, "\u73e3": 4404, "\u96a7": 7400, "\u55dc": 1628, "\u7f18": 5357, "\uff3e": 8048, "pink": 12016, "##\u947f": 20207, "##\u6fb1": 17134, "\u5f27": 2479, "##\u7fa4": 18465, "##\u9972": 20711, "nokia": 9752, "\u6d82": 3864, "\u586d": 1858, "\u53ef": 1377, "\u7ad9": 4991, "[unused89]": 89, "##\u5999": 15032, "eur": 11991, "##\u8c31": 19537, "##\u8822": 19168, "##\u8e7a": 19762, "##tis": 10827, "##\u7663": 17681, "\u2587": 452, "\u728a": 4300, "\u80c0": 5515, "\uff3f": 8049, "\u5e73": 2398, "##\u98e8": 20667, "\u87cb": 6094, "\u306c": 559, "##\u76ea": 17736, "rmk": 13091, "5m": 11483, "##\u69d3": 16601, "##\u6c34": 16774, "##\u71dc": 17301, "\u8ab2": 6307, "##\u8d2d": 19636, "gogoro": 11225, "##\u53ee": 14433, "\uff0a": 8022, "first": 9555, "174": 10134, "butler": 11797, "##\u6597": 16216, "##\u66f8": 16349, "\u00df": 191, "\u64a4": 3059, "\u8fd9": 6821, "\u6f2b": 4035, "\u52b5": 1229, "##\u9557": 20317, "##\u52e7": 14307, "770": 13215, "##\u8042": 18519, "\u7c3e": 5088, "##\u307e\u305b\u3093\u304b": 9862, "##\u8bdb": 19469, "\u03c5": 228, "\u83f2": 5838, "##\u98a1": 20643, "##\u6252": 15858, "\u8f91": 6782, "photo": 9020, "##\u717d": 17275, "##\u5572": 14633, "\u57e4": 1820, "\u91cb": 7026, "##\u59ea": 15065, "\u6cb9": 3779, "\u6adb": 3604, "##91": 9332, "\u953a": 7247, "457": 12119, "web885": 8437, "##\u0f0b": 13452, "##\u30b7\u30e7\u30f3": 10798, "##\u4e58": 13790, "##\u76c2": 17712, "else": 11740, "##\u9a79": 20784, "\u8fed": 6834, "\u90b8": 6940, "##\u5d6f": 15378, "\u786c": 4801, "##\u5c46": 15291, "patrick": 12003, "##\u30afok": 13040, "\u2589": 454, "\uff5e5": 11980, "\u7f09": 5351, "##rl": 9923, "##\u666e": 16306, "##\u687f": 16504, "##\u7cbe": 18182, "story": 10076, "##\u592e": 14982, "\u8854": 6124, "master": 9261, "##\u6b3d": 16677, "\u2071": 352, "##ata": 10449, "\u6ef7": 4018, "110": 8406, "brake": 8550, "##\u2219": 13531, "\u5b17": 2082, "\u8cbb": 6527, "##\u64b0": 16123, "##\u63ee": 16057, "\u7621": 4604, "\u9cb7": 7840, "##ect": 10862, "##eme": 12538, "##oy": 12532, "119": 9031, "##\u8ff4": 19893, "##\u94db": 20254, "##\u9678": 20437, "\u6953": 3502, "##\u87d2": 19154, "\u8360": 5781, "\u8b02": 6333, "##bc": 9242, "##\u58f6": 14958, "##26": 8756, "\u7d30": 5169, "\u755c": 4523, "williams": 11475, "##\u58b3": 14934, "\u50b5": 1002, "##\u72ee": 17383, "##\u7852": 17854, "##\uff5e3": 12617, "\u6bd5": 3684, "\u6d39": 3832, "\u643a": 3025, "\u56ed": 1736, "\u5957": 1947, "\u8a1b": 6251, "\u8fad": 6798, "culture": 13219, "##\u819c": 18663, "##\u877c": 19138, "##\u8a5e": 19327, "##\u9886": 20623, "##\u9a4d": 20764, "##\u91e3": 20094, "\u68b3": 3463, "\u817a": 5593, "\u4f0d": 824, "\u93fd": 7131, "\u9cd6": 7848, "\u5026": 958, "##\u5ba2": 15202, "##\u9a5f": 20770, "##\ufe5e": 21067, "\u9524": 7237, "##\u67ec": 16448, "\u8a13": 6246, "\u9d15": 7858, "##\u8ba2": 19427, "##\u6276": 15877, "##ping": 10755, "##\u5264": 14251, "\u52b3": 1227, "\u8f15": 6738, "\u5d16": 2304, "\u9606": 7326, "\u662d": 3220, "##\u5ea0": 15484, "\u8d61": 6616, "##\u0e32": 13449, "##\u540b": 14454, "\u69bb": 3536, "\u93c8": 7122, "wang": 9660, "er": 10451, "275": 10532, "\u9ea5": 7930, "##\u55c5": 14675, "##\u610d": 15748, "\u4ecd": 793, "211": 9395, "##\u6c55": 16787, "##\u7ee6": 18382, "##\u80da": 18581, "\u549a": 1480, "##\u4f9b": 13954, "\u9742": 7468, "menu": 8888, "q7": 12938, "##\u5678": 14754, "##\u7ca7": 18172, "##\u869d": 19073, "##\u8aa0": 19353, "##\u5575": 14634, "##\u9187": 20060, "##\u9500": 20275, "\u5357": 1298, "##\u9661": 20424, "comments": 8616, "##\u9711": 20512, "##\ufe50": 21057, "\u8367": 5786, "\u765e": 4621, "\u5538": 1551, "\u8d3e": 6593, "##map": 10909, "\u5348": 1286, "##\u6a7c": 16645, "##cing": 11540, "\u8d74": 6626, "suv": 8540, "\u996d": 7649, "##\u7949": 17915, "\u519c": 1093, "\u5564": 1566, "##\u78bc": 17883, "##\u7e46": 18305, "##\u6c50": 16786, "##\u99d2": 20746, "##\u94ed": 20265, "\u7387": 4372, "\u58a9": 1875, "\u5ef7": 2455, "##\u6b4c": 16682, "\u75ca": 4571, "final": 10591, "##\u62c9": 15918, "##\u6dc4": 16953, "##\u8584": 19003, "\u6b78": 3645, "##\uff54": 11766, "\u53bf": 1344, "\u54e7": 1522, "\u02e2": 209, "##\u731b": 17395, "##\u5b5c": 15161, "\u5006": 941, "##pact": 12624, "##\u7678": 17688, "##\u96d9": 20484, "download": 9461, "##\u55ae": 14663, "##est": 10414, "\u84bc": 5895, "\u7921": 4845, "##\u5c41": 15287, "##\u304f\u308c\u308b": 11241, "##\u5506": 14591, "\u9022": 6864, "\u75c2": 4566, "##\u5b9e": 15198, "\u5c0e": 2206, "##\u7dd8": 18277, "##\u8214": 18711, "##gh": 11304, "\u6e85": 3972, "\u885b": 6127, "\u849c": 5886, "week": 10090, "##\u5a92": 15111, "##\u5a04": 15073, "\u70e6": 4172, "##tter": 10766, "##nar": 12469, "\u9547": 7252, "\u62d0": 2866, "\u2740": 505, "\u5b73": 2117, "\u70ad": 4151, "\u7696": 4646, "##ist": 9527, "protected": 9562, "to": 8228, "##\u61f6": 15811, "\u5ab2": 2059, "\u8010": 5447, "\u30e3": 629, "\u3087": 576, "learning": 12315, "5kg": 13183, "##\u82fb": 18799, "\u5584": 1587, "\u7adc": 4992, "##\u6710": 16360, "##\u6cfb": 16868, "\u6e5b": 3961, "\u82ac": 5705, "free": 8583, "sony": 8772, "\u9b23": 7783, "##\u53ea": 14429, "n": 156, "##\u82d3": 18782, "\u7e46": 5248, "##\u89c2": 19282, "2011": 8163, "\u70ae": 4152, "\u80a2": 5501, "##]": 13341, "##\u9642": 20409, "\u00a5": 175, "\u79d2": 4907, "\u8517": 5915, "\u9e66": 7912, "##\u835a": 18835, "##\u3109": 13708, "\u9806": 7518, "##\u30f3": 8489, "##\u6750": 16389, "\u6d9f": 3878, "\u94ff": 7217, "\u5764": 1787, "##mp": 9085, "##bra": 11552, "\u5f79": 2514, "\u6843": 3425, "\u80bd": 5512, "##\u934a": 20158, "##\u6124": 15756, "blogspot": 10437, "\u2465": 410, "\u775e": 4716, "\u8a5e": 6270, "\u8c47": 6487, "3600": 10517, "##iki": 12434, "\u5f35": 2484, "##\u3075": 13671, "##\u7a0d": 17981, "\u5950": 1942, "##\u6e43": 17012, "##\uff65": 21107, "virtual": 12997, "##\u584c": 14904, "avenue": 12226, "\u5df2": 2347, "\u654d": 3128, "\u7f28": 5366, "\u76cf": 4662, "##ri": 8641, "\u73af": 4384, "331": 11879, "##\u0261": 13369, "##\u7d00": 18202, "##\u9bc9": 20862, "\u71ce": 4239, "##\u8401": 18898, "\u8477": 5879, "\u626a": 2811, "\u7080": 4137, "##\u6c8f": 16815, "\u8983": 6207, "##\u7f77": 18451, "##\u9f9b": 21046, "\u783a": 4791, "##\u4f73": 13938, "analytics": 12824, "\u8749": 6068, "\u523a": 1173, "##\u63c4": 16042, "##\u9b23": 20840, "##\u8879": 19199, "##\u730e": 17390, "##\u6c1f": 16760, "442": 13171, "##\u78b0": 17878, "\u80ce": 5522, "\u81bb": 5614, "##\u79c1": 17957, "\u5055": 975, "##\u8d30": 19639, "##sh": 8613, "##\u94f2": 20268, "\u5c6c": 2253, "\u3081": 570, "##\u7ead": 18339, "##\u9a71": 20778, "[unused84]": 84, "##bs": 9071, "nata": 10166, "13913459": 12643, "\u1167": 309, "709": 12118, "\u8993": 6212, "##27": 8976, "\u83f1": 5837, "##\u6012": 15641, "##\u5c49": 15293, "##\u780d": 17832, "##\u84cb": 18958, "##\u9ebc": 20995, "\u6849": 3429, "##ean": 10096, "fa": 12289, "##\u9550": 20313, "\u6e14": 3934, "##\u670b": 16358, "##des": 11211, "\u9985": 7666, "\u110c": 298, "##\u90a6": 19987, "\u30d2": 620, "##\u62e3": 15937, "\u9a0f": 7698, "2013": 8138, "peter": 9323, "##\u8be0": 19473, "\u5dbd": 2329, "##\u942e": 20190, "\u85e4": 5972, "\u305d\u3093\u306a": 11950, "\u672f": 3318, "\u5486": 1467, "\u727a": 4295, "\u8c05": 6446, "##\u4e00": 13728, "\u817f": 5597, "\u85dc": 5970, "\u9a5a": 7711, "\u306a\u3089\u30ef\u30fc\u30af\u30b1\u30fc\u30c8\u3078": 12154, "ly": 13252, "##\u5300": 14315, "##\u56c2": 14773, "##\u723b": 17328, "\u887e": 6143, "##\u8446": 18920, "cnn": 9206, "\u6684": 3258, "250": 8401, "740": 13159, "620": 11078, "\u958e": 7275, "\u538c": 1328, "##\u9333": 20156, "##\u9805": 20574, "##\uff0f": 21083, "\u94a2": 7167, "##\u4f48": 13911, "\u6115": 2693, "\u67b3": 3372, "\u9970": 7652, "##\u2033": 13505, "##\u30e8": 13700, "1937": 9166, "\u7e41": 5246, "\u984c": 7539, "from": 8670, "\u3057\u305f": 8819, "q2": 9898, "##\u52ff": 14314, "##\u6302": 15956, "##\u869c": 19072, "##\u8bb8": 19444, "\u5c8c": 2261, "##\u67d0": 16435, "##\u30a7": 12690, "##\u8baa": 19433, "nfc": 9298, "ncc": 8305, "\u804c": 5466, "\u5f08": 2463, "##\u62c7": 15916, "##\u66ff": 16353, "##\u8d6d": 19680, "\u6842": 3424, "\u5a66": 2044, "\u7978": 4877, "##\u9ee0": 21011, "\u7dda": 5221, "chris": 9582, "oracle": 10085, "##\u4eba": 13839, "##\u6046": 15661, "\u4e10": 681, "\u707c": 4133, "##\u67aa": 16423, "##\u5b9f": 15199, "\u7c0c": 5078, "\u9e82": 7923, "hall": 11049, "##\u504c": 14029, "##\u722a": 17316, "\u6556": 3133, "\u629c": 2838, "##\u6f38": 17098, "\u6942": 3500, "##\u7dfb": 18289, "##\u9602": 20381, "##\u9cde": 20908, "lp": 11195, "\u518f": 1087, "\u647b": 3046, "##\u66ec": 16344, "##\u6b22": 16671, "\u6215": 2771, "##\u778c": 17791, "##\u9d5d": 20923, "\u8896": 6153, "##\u901f": 19919, "\u60d8": 2665, "##\u6cad": 16831, "\u5ad4": 2068, "p2p": 8478, "\u889c": 6154, "\u86e4": 6035, "##\u8d2f": 19638, "lulu": 11970, "##dragon": 12857, "\u6682": 3257, "##\u0447": 13422, "790": 11793, "\u5e90": 2416, "06": 8116, "232": 9863, "##\u30ec": 10416, "##\u5824": 14894, "##\u6e20": 16997, "\u7fa3": 5407, "##\u7523": 17554, "##\u72a2": 17360, "\u76ee": 4680, "\u5805": 1830, "##\uff17": 9163, "sunday": 11548, "##\u9249": 20114, "##\u74b0": 17529, "\u76e7": 4678, "\u575b": 1781, "##media": 10970, "##\u8537": 18982, "##\u8de1": 19714, "\u573a": 1767, "##rence": 12743, "##\u0639": 13434, "##\u8c23": 19526, "bas": 10952, "65": 8284, "\u59e6": 2006, "\u7fe1": 5429, "\u619a": 2733, "\u659b": 3161, "\u2212": 377, "school": 9467, "\u71df": 4245, "an": 9064, "\u5d07": 2300, "\u58e2": 1891, "\u91e3": 7037, "\u841d": 5850, "\u87f2": 6100, "##lis": 10820, "\u9cc5": 7844, "##700": 11551, "teddy": 12764, "##tos": 12920, "##\u7b11": 18067, "##\u8bdd": 19470, "##\u901b": 19916, "##\u9988": 20725, "\u5f12": 2468, "##\u530d": 14319, "\u8c15": 6460, "beach": 9983, "\u6b12": 3610, "\u96f3": 7438, "##\u8ff7": 19894, "\u873b": 6064, "\u865e": 5997, "\u9e25": 7886, "##\u9394": 20171, "##\u591a": 14971, "##\u655e": 16196, "##\u758f": 17598, "##\u8ecc": 19781, "##\u95ef": 20367, "##\u6609": 16263, "\u5507": 1535, "\u64b5": 3068, "\u95f5": 7314, "t2": 10927, "##\u53d7": 14415, "##\u53fd": 14446, "[unused23]": 23, "\u9803": 7516, "3300": 11543, "\u2084": 358, "\u7980": 4880, "502": 11907, "##-": 13329, "##\u56ed": 14793, "\u503c": 966, "##\u52b5": 14286, "\u69b4": 3534, "##\u55e4": 14690, "\u9dfa": 7878, "##\u6c3e": 16778, "\u5960": 1950, "##\u8607": 19036, "\u5582": 1585, "active": 12105, "##ev": 12054, "\u54b3": 1495, "##\u9a01": 20753, "##\u732a": 17400, "##\u93b3": 20178, "\u82bd": 5715, "namespace": 11076, "506": 11608, "\u6db2": 3890, "\u6392": 2961, "##ray": 10009, "##\u6652": 16292, "##\u82a6": 18758, "iu": 13172, "\u608c": 2635, "\u5150": 1049, "\u683c": 3419, "rm": 10620, "##\u5a74": 15105, "\u5e40": 2385, "\u3055\u308c\u307e\u3059": 12001, "##\u7f9f": 18462, "##\u6781": 16410, "\u5102": 1022, "\u61d2": 2750, "\u9655": 7362, "[unused91]": 91, "\u62d8": 2872, "##\u7117": 17244, "##ston": 10229, "##\u7a88": 18020, "##\u9524": 20294, "##ada": 11370, "block": 10188, "##\u5ada": 15128, "\u71e6": 4247, "\u757f": 4537, "##\u642a": 16077, "\u63a7": 2971, "\u9f9b": 7989, "\u706d": 4127, "\u62bf": 2854, "##\u8bb6": 19442, "\u5784": 1797, "cms": 11539, "\u043e": 246, "\u6fd5": 4086, "##\u9556": 20316, "##cat": 10869, "##\u82a1": 18756, "##ig": 11421, "10": 8108, "##alk": 11346, "##\u5b55": 15154, "\u62a8": 2846, "##\u6805": 16459, "\u00b7": 185, "\u5be8": 2181, "\u5e9c": 2424, "rc": 11746, "##\u5267": 14253, "\u62bc": 2852, "\u4e56": 731, "##\u5eff": 15514, "\u51f6": 1136, "##\u7463": 17508, "##\u78ba": 17882, "\u759a": 4547, "##\u53a2": 14391, "\u9986": 7667, "gmp": 10821, "dropbox": 11277, "##\u5b66": 15167, "\u3068": 556, "\u5c71": 2255, "chang": 11680, "##\u636e": 16002, "\u742a": 4427, "\u51fd": 1141, "##\u786f": 17860, "##\u821f": 18717, "##\u6848": 16485, "##\u7b5b": 18090, "##\u86fe": 19099, "##\u9c88": 20884, "##xt": 12452, "##\u832d": 18814, "\u7ef5": 5336, "unix": 10515, "\u5927": 1920, "\u9d09": 7857, "##use": 10254, "##\u721b": 17315, "##\u8721": 19115, "##air": 10908, "\u5c3d": 2226, "##\u81a0": 18665, "##\u74ef": 17541, "ftp": 9195, "\u7a39": 4939, "car": 10875, "\u7e2b": 5239, "\u2606\u2606\u2606": 12201, "##\u6f47": 17102, "\u5751": 1778, "##\u6380": 16009, "\u7027": 4113, "225": 9140, "##\u2728": 13637, "6991": 12918, "\u609a": 2639, "\u8c46": 6486, "##\u8ba1": 19426, "\u9677": 7379, "ce": 10399, "##\u9c32": 20872, "\u79ef": 4916, "##\u6ca7": 16828, "##\u9f4b": 21026, "##\u78d5": 17890, "##\u812b": 18619, "\u6f20": 4030, "##\u82cd": 18778, "##\u88ca": 19222, "##\u8bc1": 19452, "\u311b": 658, "\u8fb2": 6803, "##fe": 9568, "##\u5433": 14482, "##eep": 12293, "\u981c": 7527, "##\u9d3b": 20919, "\u8339": 5765, "##\u8755": 19128, "##\u6f4d": 17104, "\u53d4": 1356, "\u5a05": 2017, "##\u9009": 19905, "\u806f": 5474, "\u65ab": 3169, "\u5954": 1944, "\u9501": 7219, "##ame": 10816, "##\u806a": 18530, "\u6ca2": 3767, "##rge": 10756, "##bug": 12351, "\u514b": 1046, "\u11b7": 324, "##\u4f50": 13915, "129": 8990, "##\u5492": 14530, "##\u75a4": 17609, "\u61a7": 2735, "2700": 10930, "##\u5acc": 15123, "\u53d7": 1358, "##yi": 11017, "##\u67b8": 16432, "##\u9a8b": 20797, "##town": 11323, "##\u5674": 14752, "\u51aa": 1099, "\u827a": 5686, "##\u2103": 8320, "\u558f": 1594, "\u63b3": 2978, "\u6d1e": 3822, "\u98d8": 7603, "\u6525": 3114, "##\u77cd": 17811, "kit": 12788, "\u8879": 6142, "trivago": 9963, "\u5904": 1905, "512": 11530, "\u52dd": 1245, "\u560d": 1651, "##\u680f": 16465, "##\u3055\u3093": 10874, "\u03b8": 216, "\u8591": 5952, "##ett": 13151, "\u32a3": 668, "\u6eda": 4003, "##wood": 9730, "\u6c2f": 3714, "\u7232": 4264, "hair": 11408, "\u70d8": 4167, "99": 8238, "##ket": 11820, "\u654f": 3130, "##gt": 12429, "##\u631f": 15968, "##\u6baf": 16721, "##\u70db": 17226, "\u5782": 1795, "##ier": 9181, "##\u722c": 17317, "##here": 10659, ",": 117, "##\u7b4b": 18082, "\u75b1": 4557, "##\uff13": 9089, "\u2583": 450, "##\u76b4": 17709, "\u7b4a": 5024, "##\u7b72": 18094, "\ud83d\ude02": 8104, "##\u8cfc": 19611, "##\u8f90": 19838, "audio": 11698, "##\u4e21": 13752, "\u0437": 240, "\u301d": 531, "\u75fc": 4593, "\u67ec": 3391, "##\u8a16": 19305, "east": 10990, "\u7266": 4287, "##\u5180": 14135, "\u8d39": 6589, "##ao": 8731, "ya": 12066, "##\u6240": 15849, "##man": 8490, "\u54f2": 1528, "##view": 8892, "\u73c8": 4394, "\u8038": 5458, "\u9499": 7159, "##\u55f6": 14699, "##\u969b": 20453, "##\u9c3e": 20874, "##\u54ac": 14547, "##\u9a55": 20766, "\u7b0b": 5008, "ca": 8850, "b1": 9338, "168": 8832, "\u533a": 1277, "eos": 10434, "kpi": 11025, "##\u6233": 15841, "\u8bf8": 6436, "\u3057\u3066\u307f\u3066\u304f\u305f\u3055\u3044\u306d": 12142, "##sio": 12266, "##\u8ad6": 19373, "##\u983b": 20593, "\u8c2f": 6479, "##hm": 13130, "##\u61f8": 15813, "##\u96aa": 20459, "\u4e4c": 723, "\u68d7": 3474, "\u6803": 3400, "\u5c9a": 2269, "\u91af": 7018, "##kv": 11145, "##\u4fc2": 13970, "##\u30b9\u30c8": 10579, "##\u989a": 20637, "304": 9627, "win7": 8586, "\u778e": 4735, "##\u304d\u307e\u3057\u305f": 12055, "##\u66b9": 16333, "1977": 9060, "##unge": 13077, "##\u5ef6": 15511, "##\u306a\u3063\u305f": 12102, "\u589f": 1873, "##\u8151": 18634, "\u9971": 7653, "\u8857": 6125, "##\u51f6": 14193, "##\u73d9": 17458, "##age": 9103, "##\u94e3": 20260, "##\u65d7": 16243, "von": 12310, "\u7eea": 5328, "\u5413": 1405, "\u8996": 6213, "wilson": 12348, "##\u8aa6": 19358, "\u5e78": 2401, "##\u8bab": 19434, "\u9673": 7376, "\u9418": 7132, "\u306e": 561, "4000": 8442, "state": 10223, "##\u6885": 16506, "##\u5957": 15004, "\u5a4a": 2040, "\u55b6": 1612, "\u846f": 5875, "##\u75d2": 17630, "##\u699b": 16584, "\u60dc": 2667, "##\u6ce1": 16853, "##\u8a1b": 19308, "\u1108": 295, "\u3015": 527, "##\u11b7": 13484, "\uff08": 8020, "ko": 10368, "##\u73c0": 17448, "##\u76bf": 17711, "\u608d": 2636, "##sue": 11872, "##\uff7d": 21113, "114": 8866, "\u98a8": 7591, "\u8d35": 6586, "##\u89b7": 19277, "##ix": 9330, "##\u043b": 13410, "\u5c2c": 2217, "##\u4eea": 13868, "sync": 13193, "##\u74f6": 17543, "moba": 11565, "##\u6ca3": 16825, "##\u8389": 18856, "\u52d2": 1239, "##\u5043": 14025, "##bt": 10161, "\u82e5": 5735, "some": 13048, "##\u549b": 14538, "##\u59b9": 15044, "##\u9a7e": 20787, "\u6249": 2796, "mlb": 9905, "##\u6ea2": 17037, "##\u56fe": 14802, "##\u59a5": 15037, "\u6d95": 3873, "##\u7d9c": 18255, "\u6cd5": 3791, "basic": 12309, "\u6273": 2819, "##\u79aa": 17947, "?": 136, "\u0434": 237, "\u6084": 2632, "\u62c6": 2858, "\u7db5": 5208, "\u842c": 5857, "\u9688": 7385, "fks": 10044, "##ury": 11117, "##\u9031": 19924, "\u97cc": 7501, "\u6dae": 3888, "\u88aa": 6157, "##\u99f1": 20751, "fedora": 11577, "\u8003": 5440, "john": 8675, "dom": 11183, "\u8a55": 6268, "##\u9744": 20526, "##\u8198": 18660, "\u7ecd": 5305, "##gan": 10622, "##\u223c": 13540, "##\u74bf": 17531, "\u558a": 1591, "##\u57e0": 14876, "##\u6e23": 16999, "\u4e9f": 766, "pixnet": 8191, "##ctor": 9610, "##\u5571": 14632, "##\u82d7": 18785, "\u8118": 5557, "##\u87e0": 19155, "\u4e73": 745, "511": 12677, "apt": 13205, "##\u6221": 15834, "lu": 12015, "\u5cd2": 2282, "##\u97d3": 20559, "\u83f8": 5839, "005": 11168, "##\u5605": 14703, "tree": 10934, "\u7720": 4697, "##ks": 9457, "##\u60fa": 15743, "\u0646": 271, "\u72f0": 4327, "\u307e\u305f\u306f": 12019, "##\u56ca": 14775, "##\u749e": 17525, "##\u8471": 18933, "\u607a": 2628, "##\u30b7": 10472, "\u9c77": 7822, "##\u043c": 13411, "\u86d0": 6030, "##\u8bf4": 19489, "\u7d0b": 5151, "\u258c": 456, "elle": 11593, "##\u71df": 17302, "\u564c": 1680, "\u4f1e": 835, "\u7aef": 4999, "\u90bb": 6943, "##\u56f2": 14796, "\u5370": 1313, "\u6d85": 3865, "\u9633": 7345, "##\u5e36": 15437, "install": 12461, "##\u701d": 17167, "##\u540d": 14456, "4a": 10660, "##\uff53": 10721, "hostel": 13113, "\u8a89": 6289, "##\u02b0": 13370, "##\u56e4": 14789, "dm": 10442, "##\u92fc": 20143, "##\u6f58": 17107, "286": 11367, "tech": 11402, "\u7cdc": 5134, "\u9893": 7575, "##\u064a": 13440, "##3": 8152, "##ja": 10067, "##\u9551": 20314, "518": 8739, "ea": 9714, "san": 9542, "\u2478": 419, "##\u88e1": 19231, "\u63a9": 2973, "\u5ba6": 2149, "\u70e4": 4171, "##ki": 8614, "##gnet": 13308, "##set": 9852, "##\u7a7f": 18016, "\u817c": 5595, "\u5411": 1403, "\u5916": 1912, "\u5e81": 2409, "##y": 8179, "\u63cf": 2989, "##\u3066\u306f": 9809, "##\u306a\u3068": 11710, "##\u62df": 15934, "##\u8f3e": 19804, "fi": 8533, "##\u59dc": 15059, "##\u8110": 18610, "##\u84c1": 18954, "##pr": 11426, "\u828d": 5693, "##\u95f9": 20374, "\u63f8": 3003, "\u8418": 5849, "235": 8593, "##nce": 9056, "true": 10213, "zen": 12923, "\u77f3": 4767, "##\u8c47": 19544, "##\u8c94": 19564, "\u542c": 1420, "\u8acf": 6314, "\u4e1b": 690, "##\u535e": 14359, "##\u66c4": 16334, "\u4f6f": 879, "##\u310b": 13709, "\u675e": 3337, "##\u574a": 14830, "##\u579a": 14857, "##hk": 11054, "##\u8853": 19180, "##\u504e": 14030, "\u573b": 1768, "\u682a": 3415, "##\u00a9": 13278, "##\u52b2": 14283, "\u5800": 1827, "lcd": 8919, "\u79cb": 4904, "##\u4e5e": 13794, "shop": 9926, "\u9d28": 7861, "\u0644": 269, "\u306f\u3044": 9781, "\u5cad": 2275, "\u6371": 2946, "##\u820c": 18706, "##\u8ca9": 19573, "\u5520": 1541, "\u997d": 7661, "##ial": 9501, "\u8fc5": 6813, "##\u78be": 17884, "##\u5b63": 15165, "##\u65e0": 16244, "##\u8877": 19198, "##25": 8743, "##\u9858": 20601, "##\u7cdf": 18193, "\u6089": 2634, "\u82eb": 5737, "##\u6e6e": 17022, "\u700f": 4104, "##\u9e2f": 20948, "##\u8d1f": 19623, "##ste": 11881, "\u5fd8": 2563, "1950": 8707, "025": 11900, "\u8235": 5666, "\u8572": 5942, "\u9093": 6924, "pen": 12637, "##\u5944": 14992, "tan": 12886, "##\u6da1": 16937, "##\u775e": 17773, "\u81a9": 5611, "\u7ee7": 5326, "\u8869": 6135, "\uff11\uff14": 12164, "\u9854": 7543, "cache": 10991, "##\u5012": 14005, "##\u6cd7": 16849, "\u919a": 7009, "##\u9cb8": 20898, "\u5cef": 2291, "ic": 8577, "##\u6417": 16073, "##\u7b20": 18072, "\u6710": 3303, "\u8d2d": 6579, "\u7a81": 4960, "\u8005": 5442, "\u8c4c": 6491, "##=": 13335, "ts": 9154, "##\u5693": 14763, "##\u6593": 16215, "##\u7df4": 18287, "\u4e53": 729, "\u8d64": 6619, "\u8fba": 6805, "bug": 8761, "##hing": 10716, "##\uff04": 21073, "\u6c55": 3730, "\u7095": 4145, "\u721b": 4258, "##\u8ae1": 19376, "##\u4e80": 13804, "\u72d9": 4319, "\u8fbb": 6806, "##\u7267": 17345, "##\u7956": 17919, "\u0e01": 276, "##\u5a49": 15096, "379": 12613, "top10": 10466, "##\u5cb8": 15336, "\u062a": 264, "\u7526": 4499, "ubuntu": 8889, "##\u6756": 16392, "credit": 12241, "\u82ae": 5707, "\u768b": 4642, "\u9112": 6966, "\u9f39": 7964, "##39": 9355, "\u6c30": 3715, "\u8870": 6139, "\u8bc4": 6397, "\u9ebd": 7939, "##\u30ab\u30fc": 10175, "\u6768": 3342, "##stack": 12511, "##\u7b4f": 18084, "##\u81f3": 18692, "\u6dc0": 3895, "\u9817": 7525, "##\u96fb": 20499, "\u8cb8": 6526, "\u3081\u3066": 11967, "##\u95c6": 20350, "10\u2103": 9115, "special": 9969, "362": 12711, "##480": 11581, "\u5ec1": 2438, "\u5481": 1464, "##\u748b": 17521, "\u7977": 4876, "\u9510": 7229, "##\u7570": 17587, "\u4e94": 758, "##\u300a": 13652, "\u8585": 5947, "##\u59d3": 15055, "##\u8680": 19065, "\u9f61": 7972, "nbsp": 8400, "\u4fdf": 926, "\u62da": 2874, "arm": 9498, "\u306a\u3068\u306e": 10435, "##tags": 11313, "but": 10288, "370": 10011, "\u9052": 6886, "2030": 9787, "\u55b3": 1610, "\u57d7": 1817, "\u6252": 2801, "780": 11493, "##lee": 12448, "##\u564c": 14737, "##\u673d": 16380, "##\u5634": 14730, "##\u8f9e": 19848, "##\u9091": 19980, "\u30fd": 646, "##thing": 12012, "dd": 10391, "##\u98a8": 20648, "\u98ef": 7613, "3c": 8344, "145": 9390, "c1": 10905, "##\u7136": 17254, "\u4e4b": 722, "##\u8ff0": 19892, "##dge": 12025, "##\u6c64": 16796, "\u8207": 5645, "\uffe3": 8100, "\u6bef": 3691, "sogo": 10275, "##\u746f": 17512, "##\u5ad8": 15127, "\u044b": 257, "##lf": 9751, "\u307f\u3044\u305f\u305f\u3051\u307e\u3059": 9825, "##\u300f": 13657, "\u9573": 7267, "\u6d51": 3847, "wiki": 8548, "cba": 10912, "\u60f1": 2681, "\u6885": 3449, "boy": 10447, "\u5287": 1206, "\u748e": 4465, "\u543c": 1432, "~": 172, "\u9903": 7618, "##hat": 12063, "456": 12570, "\u57f7": 1822, "670": 11807, "\u9646": 7355, "##love": 12564, "x2": 10104, "##\u507d": 14041, "##\u5858": 14908, "##\u5c3c": 15282, "##\u6c10": 16752, "##\u74dc": 17535, "##\u7e23": 18295, "##\u81e5": 18686, "##\u6b4e": 16683, "##\u93e1": 20185, "\u25a1": 460, "##dom": 11290, "##\u55da": 14684, "\u7ed5": 5312, "##\u9935": 20690, "h": 150, "##\u6e9f": 17036, "\u575d": 1782, "\u5b6c": 2114, "##\u80c3": 18574, "##\u7832": 17844, "##\u2551": 13587, "##\u81d8": 18683, "##\u5c51": 15301, "##\u736d": 17418, "\u629b": 2837, "\u65cb": 3181, "240": 8821, "\u53cd": 1353, "\u6da0": 3879, "##\u6519": 16164, "##\u7518": 17548, "\u64d2": 3084, "##\u4ea7": 13829, "##\u998b": 20726, "\u67a2": 3364, "meta": 11799, "##001": 9942, "##\u82bd": 18772, "##\u8749": 19125, "\u808b": 5490, "\u8b14": 6338, "\u4e3f": 716, "##\u5e26": 15429, "##\u6000": 15634, "\u8ad6": 6316, "\u9f13": 7961, "house": 8696, "gmat": 13204, "##\u723a": 17327, "##&": 13322, "\u9130": 6973, "\u72d7": 4318, "##\u5fa8": 15597, "##\u5766": 14845, "1300": 8925, "##\u6563": 16198, "##\u306e\u3066": 8618, "##\u826f": 18736, "\u5080": 986, "\u67e0": 3387, "\u8efe": 6732, "##750": 10969, "##\u6590": 16213, "\u250a": 433, "##\u6bd5": 16741, "\u79c0": 4899, "\u5fd2": 2560, "##\u306e\u3066\u3059": 12385, "\u75e3": 4582, "##\u77ef": 17823, "##\u6068": 15673, "##\u7b75": 18095, "##\u7d22": 18221, "265": 8689, "\u9685": 7383, "##\u25b2": 9887, "##mi": 8625, "iot": 9543, "evolution": 12691, "\u7ae5": 4997, "##uma": 13083, "##\u8338": 18821, "\u35ce": 670, "\u9f90": 7984, "kiehl": 8587, "##\u5413": 14462, "##\u75ab": 17611, "\u58f3": 1900, "##\u5075": 14037, "##\u6dbf": 16951, "##\u5dee": 15402, "beyond": 12352, "\u68f9": 3485, "\u25ce": 473, "\u55aa": 1603, "\u75ab": 4554, "##\u653b": 16179, "corporation": 8831, "##\u6332": 15978, "\u7ff0": 5432, "\u8db5": 6641, "\u95be": 7292, "$": 109, "##\u8015": 18506, "\u7591": 4542, "\u613f": 2703, "\u963b": 7349, "\u6b7b": 3647, "0800": 10200, "\u6740": 3324, "##\u81be": 18673, "u": 163, "\u30e1\u30fc\u30ab\u30fc": 12052, "##\u836a": 18845, "\u6296": 2833, "##\u8af1": 19382, "##\u9130": 20030, "##\u3125": 13721, "##\u2028": 13502, "##\u9234": 20108, "\u74f4": 4485, "\u5315": 1264, "##\u665d": 16299, "##\u3087\u3046": 11663, "\u7ebe": 5295, "##\u9701": 20502, "\u5a7a": 2052, "\u68f5": 3484, "\u85ac": 5960, "van": 9933, "\u7f06": 5348, "##tra": 9808, "dragon": 10829, "##\u5bc4": 15221, "\u6ce1": 3796, "##\u699c": 16585, "\u7bb1": 5056, "bbs": 9026, "\u555e": 1563, "\u6c5e": 3735, "##}": 13346, "\u98d9": 7604, "\u7a20": 4932, "##\u57d7": 14874, "\u9760": 7479, "\u7f72": 5392, "##\u4e25": 13755, "##\u7787": 17789, "##\u557b": 14638, "##\u6c82": 16809, "##\u7dcf": 18274, "313": 11622, "##\u4f22": 13895, "##\u9645": 20411, "##\u9382": 20167, "##\u4f0f": 13883, "\u785d": 4799, "378": 12770, "\u905e": 6894, "\u62c4": 2856, "##\u5f8a": 15582, "\u4f09": 822, "\u91c7": 7023, "##\u30e0": 9227, "days": 9068, "\u7518": 4491, "363": 12937, "\u7be9": 5072, "expedia": 12317, "##\u96a3": 20456, "##\u79d2": 17964, "##\u6688": 16317, "rose": 9497, "1946": 9120, "##nel": 12827, "\u5398": 1330, "##\u8d0d": 19616, "\u5267": 1196, "\u70db": 4169, "pack": 12736, "292": 11542, "}": 171, "\u68a2": 3456, "ccd": 12882, "3m": 9192, "\u79bb": 4895, "412": 12346, "##card": 11644, "\u91d8": 7034, "##\u5598": 14653, "##\u6742": 16382, "g7": 13053, "\u5c4b": 2238, "sam": 10088, "##\u523b": 14231, "##\u692d": 16552, "ha": 11643, "\u5462": 1450, "[unused34]": 34, "1280": 10350, "##\u4ff3": 13994, "##\u8fbb": 19863, "com\u2122": 10921, "##\u6a62": 16641, "yahoo": 8497, "##\u781a": 17837, "##\u89c6": 19285, "##\u304f\u305f\u3055\u3044": 9175, "eva": 10154, "\u68c4": 3468, "fluke62max": 10946, "\u5f29": 2480, "##wen": 10861, "\u6469": 3040, "\u8c28": 6474, "150": 8269, "##\u4ed1": 13853, "\u5f92": 2530, "##100": 8823, "##\u536f": 14369, "\u5b8b": 2129, "tv": 8395, "109": 8965, "##zon": 10623, "##\u54ad": 14548, "##\u5b5f": 15163, "##\u7ae0": 18052, "\u7e34": 5242, "##\u6c23": 16763, "\u6bd8": 3686, "##\u94ae": 20232, "##\u58c6": 14939, "##\u8d56": 19666, "\u30aa": 597, "##ques": 12503, "##\u8292": 18752, "1958": 8955, "##\u9df9": 20934, "\u4e80": 747, "##\u9cc5": 20901, "##\u907a": 19966, "factory": 12896, "jonathan": 11559, "##\u670d": 16359, "##\u9322": 20149, "eco": 12791, "\u5d1b": 2307, "in": 8217, "##\u53ed": 14432, "##\u7432": 17488, "\u7747": 4710, "pu": 11227, "##ui": 9273, "##\u02cb": 13374, "[unused39]": 39, "\u6861": 3438, "##\u7779": 17783, "\u258e": 458, "##\u61ab": 15795, "singapore": 12916, "##\u587e": 14917, "##\u89c0": 19280, "\u8caf": 6520, "##\u308c\u305f": 10679, "\u5358": 1299, "465": 12930, "\u64e6": 3092, "##\u98f2": 20671, "\u4e01": 672, "\u5c06": 2199, "\u7c5f": 5095, "##\u80f4": 18596, "##\u9e26": 20944, "##\ud83d\ude02": 21126, "\u30cd": 617, "\u76b0": 4650, "##\u8703": 19102, "\u7377": 4365, "stone": 11073, "##\u7e47": 18306, "##ful": 10291, "##\u24d4": 13576, "\u9550": 7256, "##\u9ab7": 20816, "\u7384": 4371, "\u6715": 3305, "##\u7352": 17413, "##\u647b": 16103, "870": 10731, "##\u86b5": 19080, "\u7b54": 5031, "\u54e5": 1520, "\u947c": 7147, "\u6677": 3254, "linux": 8403, "##\u4e3d": 13771, "##\u6d3d": 16892, "##\u99c6": 20744, "\u7e73": 5260, "\u7fa5": 5409, "##\u93d8": 20182, "##\u5760": 14842, "\u6db8": 3892, "\u74bf": 4474, "##\u8d66": 19677, "##\u906d": 19958, "\u907c": 6910, "qvod": 10554, "##\u7d27": 18222, "\u950b": 7226, "[unused26]": 26, "##ces": 11463, "2022": 10550, "\u674e": 3330, "\u60d1": 2663, "\u699b": 3527, "\u4fea": 931, "##\u4f5a": 13923, "##\u856d": 18998, "##\u5750": 14834, "\u81c9": 5622, "##\u4f91": 13951, "\u89a6": 6215, "##red": 9749, "macd": 10851, "##\u8c0d": 19509, "level": 9888, "##anonymoussaid": 10813, "anthony": 10219, "##\u4e4d": 13781, "\u6b50": 3627, "##\u7315": 17391, "##\u8f95": 19841, "##\u4e99": 13818, "\u3057\u307e\u3057\u305f": 10182, "bean": 13188, "\u7a1e": 4930, "##56": 9352, "##ser": 9520, "saint": 10484, "docker": 10290, "n1": 11356, "##\u8af8": 19385, "\u525b": 1190, "\u70cf": 4166, "##\u8d2e": 19637, "\u6c9f": 3765, "##oud": 12867, "##\u8d34": 19642, "##\u8e89": 19767, "\u15dc": 329, "##zy": 9748, "##\u5c31": 15275, "##\u7941": 17911, "##\u800c": 18502, "\u7336": 4348, "##\u5629": 14723, "\u80a9": 5504, "\u8c49": 6489, "\u9470": 7145, "##\u2585": 13599, "\u7e94": 5269, "\u6cea": 3801, "\u8ca1": 6512, "classic": 11524, "##\u6803": 16457, "##\u76fc": 17744, "\u311a": 657, "##\u7947": 17913, "##\u8368": 18844, "##\u96fe": 20500, "\u57ce": 1814, "\u81df": 5627, "\u54fd": 1531, "\u4ea2": 768, "\u7926": 4846, "##\u6800": 16456, "rpg": 9278, "6gb": 12324, "##\u631a": 15964, "##\u9673": 20433, "carlo": 12628, "crm": 9991, "radio": 11034, "\u8f66": 6756, "\u5217": 1154, "prada": 11617, "links": 10417, "##\u6361": 15996, "##\u5c27": 15273, "nb40": 12965, "##\ufe59": 21064, "##\u6307": 15957, "##\u6f7a": 17121, "##ack": 11360, "sophie": 12127, "\u5fd7": 2562, "\u76ef": 4681, "\u9610": 7331, "\u58df": 1890, "\u59a4": 1979, "hotel": 8462, "\u69ad": 3531, "\u8bba": 6389, "mg": 9404, "140": 8468, "county": 13088, "\u7817": 4779, "\u984d": 7540, "##\u2027": 13501, "##\u77c7": 17810, "\u9608": 7328, "ktv": 8894, "##\u8404": 18900, "##\u67b3": 16429, "\u90e4": 6953, "##\u5df1": 15403, "##\u5e79": 15459, "##\u718f": 17278, "sean": 12794, "##\u7bb4": 18114, "##\u5b05": 15136, "\u5e2e": 2376, "qi": 11566, "##sha": 12772, "##\u92d2": 20138, "\u94f8": 7214, "\u709c": 4148, "##\u25a0": 10819, "\u6324": 2915, "##\u8783": 19140, "##ill": 9868, "##\u8238": 18726, "\u3057\u3066\u304f\u305f\u3055\u3044\u266a\u3053\u306e": 12151, "\u24d2": 424, "##\u75c8": 17626, "\u2605\u2605\u2605": 10559, "##\u574e": 14832, "##78": 9136, "##vi": 9197, "\u78ba": 4825, "nikon": 11391, "##\u7bf7": 18133, "\u279c": 507, "ie": 8469, "\u94c6": 7193, "##\u8b59": 19410, "\u5a1c": 2025, "\u9a62": 7714, "\u51c8": 1116, "\u69c1": 3537, "##\u5382": 14379, "136": 9015, "##>": 13336, "##am": 8608, "##\u5949": 14995, "face": 10656, "##\u82c4": 18775, "##\u983c": 20594, "570": 11594, "\u7663": 4624, "\u1109": 296, "##\u8191": 18659, "##\u93d7": 20181, "##\u52b4": 14285, "\u9b3c": 7787, "instagram": 8780, "##\u55ce": 14678, "##\u72b8": 17366, "\u92fc": 7086, "club": 8907, "##oman": 13127, "##\u91d1": 20089, "\u8a87": 6288, "miui": 11342, "\u3081\u308b": 12368, "\u50ed": 1015, "##\u4f0e": 13882, "##\u25e4": 13618, "\u548e": 1470, "##\u8c22": 19525, "##\u9ca4": 20891, "\u6ec4": 3993, "\u7f31": 5372, "\u5f20": 2476, "##\u51bb": 14165, "##\u9463": 20200, "\u56cd": 1719, "\u78f7": 4840, "##\u5367": 14366, "\u543b": 1431, "\u80f6": 5540, "\u6c37": 3718, "\u9812": 7523, "##\u7ef4": 18392, "\u9e75": 7918, "\u7dac": 5203, "gigi": 12634, "\u570f": 1753, "\u5947": 1936, "\u7600": 4595, "\u993e": 7634, "g5": 12492, "##\u73ea": 17464, "\u745f": 4449, "pantos": 10030, "##ze": 9349, "history": 9939, "\u7ea4": 5275, "382": 12163, "beautiful": 13106, "\u9200": 7041, "\u4f18": 831, "\u9aa5": 7753, "##\u5616": 14711, "\u7ff3": 5434, "##\u978f": 20549, "\u110b": 297, "\u8d4f": 6605, "\u7ae0": 4995, "\u8bcf": 6405, "\u60a8": 2644, "337": 12129, "tmt": 11920, "food": 9579, "##\u5401": 14447, "r8": 10187, "\u98e2": 7609, "##\u6b16": 16668, "\u8823": 6112, "\u9876": 7553, "\u5dba": 2327, "##\u043a": 13409, "\u752b": 4502, "big": 9193, "##\u5b7d": 15178, "##\u8e1d": 19731, "\u91b4": 7019, "\u57a0": 1802, "##\u65b9": 16232, "\u512a": 1032, "\u3066\u304d\u307e\u3059": 11397, "##1": 8148, "\u11b8": 325, "\u7fd8": 5426, "email": 8307, "##\u50ee": 14073, "##ters": 12017, "\u7f9f": 5405, "##\u79d1": 17963, "##\u834a": 18828, "##\u84bf": 18953, "##\u98ef": 20670, "3100": 12100, "\u5371": 1314, "##\u6cc9": 16844, "\u30e6": 632, "\u5eca": 2443, "\u6ee2": 4008, "\u5047": 969, "\u5f85": 2521, "drive": 10170, "##\u5740": 14827, "##\u58e2": 14948, "\u82af": 5708, "\u9d6c": 7868, "##\u3078": 11320, "##sun": 11798, "\u58ec": 1895, "\u7525": 4498, "##ver": 8984, "##\u5e73": 15455, "\u6979": 3516, "\u6363": 2941, "video": 9539, "##\u62c8": 15917, "##\u6a71": 16643, "##\u8f96": 19842, "\u5f9e": 2537, "##\u7765": 17777, "##\u80a5": 18560, "\u7d14": 5155, "##mc": 10307, "q3": 10982, "small": 11988, "##ernel": 13272, "##\u96c9": 20474, "##\u5510": 14595, "\u56e3": 1731, "\u642a": 3020, "jessica": 11731, "\u7da6": 5201, "\u835a": 5778, "daniel": 9701, "\u9739": 7465, "##\u5b69": 15168, "\u6d9d": 3876, "##\u7fdf": 18484, "\u620e": 2766, "##s": 8118, "friend": 13280, "##\u7159": 17263, "\u8138": 5567, "\u5b55": 2097, "\u5450": 1443, "1902": 11487, "##dget": 11857, "##\u7ee2": 18379, "##\u8e22": 19734, "\u6b59": 3629, "##ez": 11640, "\u6f84": 4067, "\u77ad": 4747, "\u7dba": 5210, "\u95fb": 7319, "pd": 9884, "h2": 12212, "##\u6789": 16413, "##\u6b69": 16695, "\u62e9": 2885, "##\u9887": 20624, "##\ufe3f": 21052, "##\u62e5": 15938, "##\u8821": 19167, "\u78f2": 4839, "##\u6b79": 16703, "\u7d19": 5158, "350": 8612, "next": 9321, "##\u6f13": 17084, "annie": 11022, "korea": 11984, "##\u80e7": 18589, "##\u50a9": 14054, "##\u875f": 19131, "##\u6c88": 16812, "##\u9994": 20730, "\u5657": 1684, "\u5768": 1789, "\u6258": 2805, "\u66a2": 3268, "##\u582f": 14896, "k2": 11999, "1912": 9855, "by": 8120, "\u6448": 3032, "\u7ec7": 5302, "##\u4ece": 13851, "##\u4f5e": 13927, "\u5f66": 2504, "##\u732b": 17401, "##\u812f": 18620, "ni": 10560, "##\u7b28": 18074, "##\u8725": 19117, "\u4e82": 748, "1990": 8431, "\u8e44": 6686, "1963": 9155, "##7": 8161, "\u61f7": 2755, "##\u5c4c": 15296, "##\u7fce": 18480, "##\u9370": 20163, "\u8c5a": 6495, "\u7345": 4353, "\u530d": 1262, "\u304b\u3089": 8526, "\u7fca": 5421, "\u305b\u307e\u3059": 10046, "hitachi": 12294, "\u58f9": 1902, "##\u548e": 14527, "##\u62d8": 15929, "##\u5e16": 15422, "##\u8c6c": 19557, "##\u5358": 14356, "##\u5897": 14925, "\u55b2": 1609, "##ever": 11531, "##\u851a": 18974, "##\u8c2d": 19535, "\u56c9": 1717, "\u8b66": 6356, "32g": 13181, "\u585a": 1852, "37": 8234, "\u6124": 2699, "##ap": 8872, "12345678910": 9363, "##ose": 10936, "\u2022": 340, "##ted": 9255, "##\u50fb": 14077, "\u5757": 1779, "ga": 11005, "aspx": 12363, "root": 8859, "##\u54d7": 14574, "##ved": 11667, "##\u64b8": 16127, "[unused11]": 11, "\u9189": 7004, "##\u5eda": 15503, "##\u905b": 19949, "\u5faa": 2542, "##\u9c48": 20875, "\u67ff": 3398, "\u764c": 4617, "\u7f4c": 5379, "\u8caa": 6517, "\u7b97": 5050, "\u9975": 7656, "\u9be8": 7809, "\u6c82": 3752, "113": 8989, "westbrook": 11771, "##46": 9340, "##\u306a\u304f": 10395, "##\u00ab": 13352, "\u6912": 3492, "\uff70": 8087, "236": 9671, "\u696d": 3511, "##\u69ff": 16611, "##\u72ac": 17362, "##\u7a96": 18026, "\u1174": 319, "july": 8909, "2018": 8271, "\u6191": 2731, "##\u85cd": 19022, "[unused54]": 54, "\u2025": 341, "##\u3042\u308a\u307e\u305b\u3093": 10769, "wii": 11372, "##\u634f": 15991, "\u548f": 1471, "\u6cd3": 3790, "##66": 8952, "[unused14]": 14, "\u5ae6": 2074, "##\u83d6": 18886, "\u543d": 1433, "\u9b25": 7784, "##\u7d30": 18226, "##\u6dea": 16971, "##\u8731": 19118, "\uff4d": 8063, "\u30d2\u30f3\u30af\u30c6\u30f3\u30de3": 10886, "##price": 13087, "##\u96e2": 20488, "##mann": 10750, "##\u543e": 14491, "\u89ce": 6232, "emily": 12384, "uv": 9473, "##\u644a": 16090, "##\u5537": 14607, "privacy": 8677, "\u934b": 7102, "\u931a": 7090, "press": 9228, "\u65f1": 3197, "\u7af6": 5000, "\u71b9": 4231, "\u8708": 6048, "\u92ea": 7083, "##\u72b7": 17365, "dna": 8669, "198": 9776, "\u25b2topjun": 10263, "1870": 12720, "\u8da8": 6638, "##\u512a": 14089, "\u693f": 3499, "\u6811": 3409, "##\u307e": 9774, "\u5c02": 2197, "##ello": 13213, "##\u5f35": 15541, "##\u7691": 17701, "##ing": 8221, "##\u6790": 16415, "##\u76c5": 17714, "##\u8208": 18703, "##\u8d4e": 19661, "\u6362": 2940, "\u524b": 1182, "##\u915a": 20042, "se": 9342, "##\u9aa4": 20809, "\u5bdb": 2172, "##\u525d": 14249, "\u7ed9": 5314, "##\u55ba": 14672, "##\u7c6c": 18155, "\u9b03": 7776, "[unused28]": 28, "\u6182": 2726, "##\u65c5": 16237, "\u8a66": 6275, "\u85b9": 5963, "##\u9508": 20281, "##\u8840": 19174, "##\u828e": 18751, "\u79e3": 4910, "\u5f88": 2523, "##\u70af": 17210, "\u8fd4": 6819, "count": 10926, "##\u4e5f": 13795, "##\u8b6f": 19415, "\u599d": 1976, "\u9669": 7372, "\u83b4": 5814, "599": 10713, "##\u304f": 8763, "##\u30cc": 13690, "\u66f0": 3288, "##\u64c1": 16132, "##\u8209": 18704, "##\u8cd3": 19597, "\u7018": 4107, "\u5e7c": 2405, "\u8f89": 6778, "\u663c": 3226, "\u4eb3": 780, "\u6cc1": 3785, "##\u3063\u3066\u3044\u307e\u3059": 11822, "\u7cbd": 5124, "##\u64b2": 16124, "\u8ab9": 6308, "##\u95f4": 20370, "##\u4f4f": 13914, "\u60eb": 2675, "##\u77e5": 17818, "\u02da": 208, "\u64ad": 3064, "##\u7ef0": 18390, "##\u8c10": 19512, "\u596a": 1954, "##\u64d4": 16142, "453": 12893, "##\u653e": 16180, "##\u7481": 17517, "\u9d3b": 7862, "\u8783": 6083, "##\u5c9b": 15327, "\u54ac": 1490, "\u4e8f": 755, "\u5fb4": 2546, "fishbase": 13316, "\u9aea": 7772, "\u99dd": 7692, "\u22c8": 402, "##lr": 10712, "\u4f2f": 843, "##\u566c": 14750, "\u6609": 3206, "##\u30ea": 9754, "##\u5345": 14341, "##\u818a": 18657, "copyright": 9521, "##\u8fc8": 19872, "\u9a8c": 7741, "\u5bf6": 2188, "\u777f": 4729, "##\u588a": 14922, "##\u5f02": 15517, "\u4ee5": 809, "##\u60ed": 15734, "##\u63a3": 16026, "[unused36]": 36, "\u6b61": 3631, "##\u7317": 17393, "##42": 9240, "\u71c9": 4237, "##\ufe57": 21063, "##\u9672": 20432, "##\uff07": 21076, "\u6221": 2777, "\u7956": 4862, "\u82d1": 5723, "\uff64": 8084, "bella": 13192, "##\u525b": 14247, "##\u67e5": 16446, "##\u8db4": 19697, "\u66d6": 3281, "galaxy": 8547, "##\u75d5": 17632, "##\u557c": 14639, "##\u9647": 20413, "##\u30b7\u30e3\u30f3\u30eb\u306e": 11947, "##\u8c08": 19505, "##\u9818": 20583, "##\u7573": 17589, "\u9ea6": 7931, "##xon": 12854, "##\u6c57": 16788, "##\u9bdb": 20865, "there": 11136, "\u7ef4": 5335, "##\u5fa9": 15598, "##\u607c": 15687, "cookies": 8193, "##\u94c6": 20250, "##\u90d1": 20005, "##\u502b": 14018, "leonnhurt": 13160, "q5": 11871, "355": 11753, "gnu": 12367, "\u5c01": 2196, "\u85d3": 5968, "##ed": 8303, "##\u60a9": 15702, "\u67ef": 3392, "##\u7070": 17186, "##gi": 10006, "##\u044c": 13425, "##\u8be9": 19481, "##\u68b3": 16520, "\u8ce4": 6547, "\u80db": 5525, "##lock": 11248, "gold": 10628, "##\u590f": 14966, "wali": 10736, "\u77ee": 4765, "\u892b": 6193, "\u7be1": 5070, "##\u5a1c": 15082, "##\u6d66": 16912, "\u4fd7": 921, "\u9a4d": 7707, "\u9177": 6999, "\u6f2a": 4034, "\u6473": 3042, "##\u8174": 18647, "\ufe41": 7996, "well": 12010, "##jy": 13051, "\u6064": 2614, "##\u4f96": 13952, "##\u5ec3": 15497, "\u7ece": 5306, "##\u96ea": 20491, "\u81e8": 5631, "##\u94e9": 20263, "\u2033": 346, "pop": 8971, "\u7ef0": 5333, "270": 9282, "isis": 11709, "##\u8098": 18552, "\u552c": 1544, "\u5a25": 2029, "\u677c": 3350, "\u7192": 4222, "##hd": 9304, "kiss": 11192, "##\u8b0a": 19392, "very": 11785, "##\u840b": 18902, "190": 8979, "##\u8fba": 19862, "##\u9170": 20052, "##\u8ca0": 19568, "##\u6b53": 16685, "##\u90f4": 20016, "\u645f": 3038, "##\u3068\u3044\u3046": 12383, "\u4ed3": 797, "##\u6020": 15648, "\u30bd": 607, "\u82c7": 5719, "\u549b": 1481, "##\u532e": 14330, "##\u8139": 18625, "\u80bf": 5514, "\u8e8d": 6713, "##76": 9624, "\u8f7d": 6770, "\u66c9": 3280, "martin": 10059, "\u53ce": 1354, "\u7de0": 5224, "\u7ee5": 5324, "\uff5c": 8078, "usb3": 13255, "##\u8d48": 19657, "\uff89": 8093, "##\u306e\u306b": 12813, "##\u4e5d": 13793, "##\u7407": 17473, "##\u846b": 18929, "##ere": 12865, "##\u8a93": 19349, "\u689f": 3455, "\u7cb2": 5119, "163": 8737, "waze": 12836, "\u6620": 3216, "##\u7238": 17325, "\u75a1": 4550, "\u2197": 373, "\u53e6": 1369, "\u7159": 4206, "##\u5960": 15007, "9": 130, "##\u68f5": 16541, "##\u4f86": 13946, "\u85a9": 5958, "tiffany": 11509, "##\u5ee2": 15507, "\u898f": 6211, "##\u8aac": 19361, "\u6e6b": 3964, "\u56c2": 1716, "##17": 8408, "##\u7325": 17398, "\uff56": 8072, "##\u3061": 9967, "\u8401": 5841, "\u3042\u308a\u307e\u3059": 12737, "##\u543b": 14488, "##\u6e38": 17009, "##\u66ab": 16328, "##\u9a7b": 20785, "\u8cd3": 6540, "\u6069": 2617, "007": 9722, "\u1d49": 331, "616": 13226, "##\u5c91": 15320, "##\u68f9": 16542, "##\u78f7": 17897, "##\u919e": 20069, "##\u6b46": 16679, "earth": 11409, "\u8fbe": 6809, "\u9a77": 7725, "dit": 13231, "##\u96d2": 20481, "##\u6c13": 16754, "1904": 11035, "##\u30ed": 10068, "##\u543d": 14490, "##\u57c3": 14869, "\u88d9": 6170, "##\uff5e17": 12405, "##nger": 11533, "\u903e": 6874, "404": 10524, "536": 12904, "##\u786c": 17858, "\u226a": 398, "\u6d4a": 3843, "\u7e23": 5238, "##\u70ac": 17207, "##\u98e2": 20666, "##\u76d8": 17726, "festival": 11720, "\u9f10": 7960, "s7": 9821, "##rmb": 10894, "##\u96f0": 20493, "##\ufe5d": 21066, "##\u226b": 13550, "##\u1166": 13473, "##cker": 10603, "##\u9b44": 20847, "##\u54e9": 14581, "\u6441": 3028, "##\u9668": 20428, "860": 12468, "\u8884": 6147, "##\u50b5": 14059, "\u807d": 5481, "##\u8fa3": 19850, "\u6e2d": 3948, "185": 9560, "\u79c3": 4901, "\u9539": 7246, "##\u6751": 16390, "\u749c": 4467, "##iti": 12644, "##2007": 10604, "previous": 12194, "\u93a7": 7118, "\u7601": 4596, "##work": 12282, "our": 11052, "\u5435": 1427, "##63": 9373, "##\u7c98": 18168, "simple": 11996, "\u804a": 5464, "\u84c6": 5899, "##ats": 10841, "##\uff64": 21106, "\u2708": 496, "##va": 8786, "\u7740": 4708, "\u9532": 7244, "##\u4fa1": 13957, "##\u738b": 17431, "##\u7f1c": 18417, "##mic": 11341, "##\u2714": 13633, "\u67f5": 3396, "##\u7ff1": 18490, "##\u949e": 20220, "##core": 11921, "\u25b2topjul": 10572, "##\u754c": 17575, "tvg": 12547, "\u9060": 6895, "\u9078": 6908, "##ura": 10238, "##\u88c6": 19221, "##\u96b4": 20461, "##\u5f69": 15563, "\u85cf": 5966, "\u6652": 3235, "##jun": 12915, "##\u63b2": 16034, "fifa": 12130, "\u9b06": 7777, "##\u6483": 16105, "##\u64a9": 16118, "##\u7a92": 18023, "##\u6026": 15651, "##\u767b": 17690, "##\u5695": 14764, "economy": 11250, "\u6ef8": 4019, "##ike": 11727, "##\u654f": 16187, "\u6a6b": 3585, "\u88e4": 6175, "##21": 8650, "\u997f": 7662, "mvp": 9505, "2b": 10740, "works": 13112, "##\u75c5": 17624, "\u8bef": 6428, "\u306b\u306a\u308a\u307e\u3059": 11028, "2009": 8170, "##\u90dc": 20006, "\u75c7": 4568, "##ssion": 12726, "\uff17": 8035, "bad": 12139, "##\u86ca": 19084, "##\u8eac": 19774, "\u673a": 3322, "hero": 11673, "\u6bcd": 3678, "\u8446": 5863, "##ee": 8854, "ph": 9465, "##\u5348": 14343, "##\u53db": 14418, "\u51c7": 1115, "\u55d1": 1622, "\u80be": 5513, "##\u62e7": 15940, "##\u6da6": 16940, "##\u8df5": 19721, "\u9699": 7395, "\u5353": 1294, "\u9b4f": 7794, "\u7962": 4871, "\u7c73": 5101, "\u80ed": 5534, "##\u6052": 15665, "\u5a41": 2037, "##\u60f3": 15739, "##\u6551": 16188, "##\u968b": 20444, "##\u7f34": 18430, "\u539a": 1331, "\u75f4": 4590, "box": 9553, "##\u826e": 18735, "\u7ead": 5282, "\u666e": 3249, "373": 12779, "\u70b9": 4157, "##\u9ab0": 20814, "\u7941": 4854, "##ca": 8808, "##\u7fbf": 18475, "##ster": 8996, "490": 10566, "##\u821b": 18714, "result": 13170, "##\u7eda": 18372, "hot": 9286, "##\u84d3": 18960, "##\u776a": 17780, "watch": 9114, "\u062f": 265, "1966": 9093, "##\u68ee": 16538, "##\u6d99": 16931, "\u54fc": 1530, "\u7440": 4438, "\u9aa0": 7750, "asr": 10335, "\u8fdd": 6824, "##\u52ad": 14281, "##\u5fb7": 15605, "##\u97f5": 20567, "\u65d7": 3186, "\u50a5": 995, "\u5440": 1435, "2900": 13044, "##last": 13177, "##\u7e3e": 18302, "\u4e43": 718, "##\u8f2a": 19800, "##\u8925": 19248, "\u8607": 5979, "##\u77f3": 17824, "##\u6808": 16461, "##\u943a": 20195, "##ld": 8635, "##\u9e82": 20980, "##\u4ea6": 13828, "##\u9f8b": 21038, "topios9": 12994, "##\u516e": 14121, "\u9cde": 7851, "##\u7266": 17344, "##\u81ec": 18690, "33": 8226, "##\u74ee": 17540, "##\u4f76": 13940, "##\u59e6": 15063, "\u76d1": 4664, "2006": 8213, "##\u965e": 20422, "business": 9913, "##\u6dd2": 16960, "##\u767d": 17692, "3t": 12338, "\u6854": 3435, "\u75b9": 4562, "##\u50a3": 14051, "##\u7ce7": 18195, "##\u8d0f": 19617, "##\u89c4": 19283, "\u62a1": 2842, "##\ud83d\udc4d": 21124, "\u9b54": 7795, "\u81d8": 5626, "##\u3044\u3066": 10042, "1882": 13273, "\u5956": 1946, "##\u9504": 20278, "##\u7db5": 18265, "\u3083": 572, "\u6339": 2922, "##ass": 11904, "##\u72ce": 17372, "\u5251": 1187, "\u901a": 6858, "\u8cd1": 6539, "\u9bd6": 7807, "xz": 12999, "miller": 13114, "\u5498": 1478, "##\u558b": 14649, "##\u611f": 15754, "##\u9177": 20056, "matlab": 12640, "\u6b53": 3628, "back": 10017, "grace": 11587, "\u81c2": 5619, "##au": 9096, "\u4e89": 751, "##\u8e8d": 19770, "\u72c4": 4313, "##\u78b3": 17880, "body": 9867, "charles": 10403, "364": 12673, "\u66b1": 3273, "\u4f20": 837, "\u920d": 7043, "\u99db": 7691, "09": 8141, "\u6de9": 3913, "png": 10246, "##\u5349": 14344, "##\u658e": 16212, "##\u6829": 16471, "\u1110": 301, "##rame": 13185, "##\u30c1": 10202, "##\u300c": 13654, "\u25e2": 477, "##\u9580": 20328, "\u788e": 4810, "ib": 12487, "children": 12981, "##\u701a": 17165, "\u9e26": 7887, "\u4e8e": 754, "115": 8787, "##\u6fc1": 17138, "##\u7c7d": 18161, "52kb": 12811, "\u1163": 306, "\u8844": 6118, "##ra": 8332, "##\u7d44": 18232, "##\u83ba": 18874, "##\u53ce": 14411, "##\u9675": 20434, "\u5429": 1418, "##\u22ef": 13554, "\u647a": 3045, "\u8757": 6072, "##\u97c6": 20556, "\u4f30": 844, "##\u3089": 8732, "##\u5137": 14091, "\u64c4": 3077, "\u2715": 498, "##win": 10237, "##\u99c1": 20741, "##\u8f4e": 19811, "framework": 12842, "\u86c7": 6026, "##ast": 9421, "##\u848b": 18939, "##\u604d": 15663, "##\u9760": 20536, "\u9051": 6885, "\u8afe": 6330, "\u7801": 4772, "\u3057\u304b\u3057": 12906, "##\u84c6": 18956, "\u9a85": 7735, "stephen": 10913, "\u6f86": 4068, "##\u590d": 14965, "##\u6ab3": 16656, "##00": 8279, "173": 10020, "##\u77fd": 17826, "\u8f83": 6772, "##\u9d51": 20921, "##\u7db1": 18262, "\u6a11": 3558, "##nc": 10507, "##\u6eb4": 17044, "\u8113": 5555, "##\u59da": 15058, "##\u9418": 20189, "\u8004": 5441, "\u03c2": 225, "\u7688": 4641, "##ang": 8688, "##\u9876": 20610, "\u4e95": 759, "##bert": 10491, "\u73e0": 4403, "\u63a2": 2968, "\u9b5a": 7797, "ctrip": 8223, "##\u885b": 19184, "##\u88e4": 19232, "##\u92f0": 20141, "##\u8523": 18976, "1924": 10052, "##graphy": 12872, "##\u50f5": 14075, "##\u5531": 14605, "##\u6f31": 17095, "##\u6ee6": 17068, "\u0647": 272, "##\u838a": 18857, "1975": 8974, "282": 11431, "\u3057\u306e": 10270, "\u9e43": 7898, "##\u8888": 19206, "\u53f7": 1384, "##70": 8740, "steven": 12174, "\u6a47": 3577, "mastercard": 9841, "1997": 8387, "\u4f2b": 842, "\u8237": 5668, "##\u2615": 13620, "852": 11845, "##\u502c": 14019, "##\u693f": 16556, "##\u8f7d": 19827, "1900": 8985, "\u8be2": 6418, "##pmlast": 12138, "601": 12104, "\u8085": 5486, "bin": 11702, "[unused86]": 86, "##\u9a28": 20758, "##\u5115": 14085, "##mbps": 12399, "##tor": 8713, "##sson": 12582, "\u5d82": 2322, "##\u8fd9": 19878, "\u8bff": 6441, "\u6b0a": 3609, "##\u6642": 16286, "\u95a3": 7284, "moon": 9921, "##\u514d": 14105, "\u7b14": 5011, "##\u8a46": 19322, "\u9805": 7517, "\u6caa": 3772, "##\u5857": 14907, "gsm": 11484, "\u5eff": 2457, "\u66b4": 3274, "\u0e32": 283, "\u6f47": 4045, "\u8e7f": 6707, "##be": 8765, "\u4eab": 775, "\u5ba2": 2145, "##ex": 8870, "player": 9075, "vetements": 12859, "##\u6f06": 17081, "##\u80a0": 18556, "699": 10439, "##\u8084": 18542, "##\u81e7": 18687, "##\u63b0": 16033, "\u51fb": 1140, "\u95a2": 7283, "##ct": 8722, "rna": 11656, "##\u7ac4": 18042, "\u95fd": 7320, "\u3005": 513, "\u9c9b": 7830, "##\u0647": 13438, "##\u62ac": 15905, "\u63ed": 2999, "##\u5c3f": 15285, "##\u9f9c": 21047, "\u99d2": 7689, "##\u4f18": 13888, "##\u9cb1": 20894, "##\u9d15": 20915, "eric": 9836, "##\u571f": 14816, "##ible": 12413, "##\u266a": 9458, "##\u4eec": 13869, "\u8cab": 6518, "\u65ee": 3196, "234": 10129, "\u5f4c": 2493, "\u58bb": 1878, "\u89aa": 6217, "span": 12537, "##\u0e07": 13443, "\u675f": 3338, "##bb": 10214, "\u88e1": 6174, "\u51e1": 1127, "\u923a": 7052, "\u7ac5": 4986, "\u54d7": 1517, "##\u72c2": 17369, "##\u89a7": 19273, "##\u72fd": 17389, "1999": 8338, "26": 8153, "##\u4e49": 13778, "\u83c0": 5820, "4200": 12395, "##\u7b49": 18080, "\u62f4": 2892, "555": 11723, "##ship": 11987, "\u9523": 7236, "g": 149, "##\u8d3e": 19650, "\u5df7": 2350, "2mm": 12287, "sorry": 12758, "\u300d": 520, "ltxsw": 8793, "##care": 11014, "##\u3066\u304d\u307e\u3059": 11088, "##\u9397": 20173, "##\u8de8": 19716, "##\u52b3": 14284, "##\uff5e5": 11864, "##\u8f14": 19794, "\u25b2topapr": 10162, "##\u6d41": 16894, "##od": 9308, "##\u9593": 20336, "##\u7aa5": 18033, "##\u7d33": 18227, "\u7375": 4364, "\u738b": 4374, "##\u6a6b": 16642, "##\u623e": 15847, "##\u8b5c": 19412, "\u7e9c": 5271, "\u7fc1": 5419, "##\u582a": 14895, "##\u7be9": 18129, "\u570b": 1751, "[unused96]": 96, "\u5f71": 2512, "##ine": 8620, "##tb": 11126, "tips": 9104, "##\u525c": 14248, "\u5c79": 2256, "##\u85b0": 19019, "##\u8774": 19135, "\u67b8": 3375, "##\u57a0": 14859, "\u98fd": 7616, "\u6b65": 3635, "\u6417": 3016, "##\u8116": 18613, "\u655d": 3138, "\u7145": 4199, "##\u7316": 17392, "1936": 9481, "\u542e": 1422, "\u310c": 652, "##\u83ab": 18868, "\u4f65": 876, "57": 8272, "data": 9000, "\u6734": 3320, "##\u783c": 17849, "##chel": 10867, "\u62df": 2877, "##\u75e0": 17637, "\u4ea9": 774, "fb": 8573, "##fs": 9222, "##\u30de": 9760, "##\u8b1b": 19398, "\u6211": 2769, "\u58f0": 1898, "##era": 10540, "##\u5ac9": 15122, "##\u842c": 18914, "##\u99ff": 20752, "\u98a1": 7586, "##\u5bcc": 15225, "##999": 11430, "\u821f": 5660, "day4": 12890, "\u501a": 953, "\u60bb": 2655, "##han": 9646, "enter": 11086, "##160": 12765, "##\u51aa": 14156, "##\u65c3": 16236, "##\u7fc5": 18477, "\u6055": 2609, "insee": 11513, "\u7dd1": 5218, "ul": 10293, "##\u9060": 19952, "##\u9980": 20720, "##\u9088": 19976, "\u536e": 1311, "##\u7444": 17497, "\u1105": 292, "rich": 13210, "##\u8914": 19246, "##\u948a": 20210, "\u9e33": 7892, "\u674f": 3331, "\u30e4": 630, "\u8c29": 6475, "##lon": 10146, "##\u9a9c": 20805, "wu": 10552, "coupe": 13142, "##\u846f": 18932, "\u25bc": 468, "\u4ec6": 789, "\u627c": 2822, "\u4e18": 687, "\u69cb": 3539, "##\u8782": 19139, "##aine": 12554, "##nor": 12245, "\u516c": 1062, "\u8c23": 6469, "##\u6c27": 16766, "\u94c2": 7189, "\u96cd": 7420, "##\u3044\u308b": 9317, "\u207f": 354, "##\u7a91": 18022, "##url": 12373, "##\u5b7a": 15177, "##\u5802": 14885, "\u61d1": 2749, "##\u8cbd": 19586, "##\u9326": 20150, "##v": 8225, "##\u9ea5": 20987, "##\u6524": 16170, "##\u958e": 20332, "ec": 12470, "##\u30cf": 12838, "##\u5f31": 15540, "dvd": 8316, "\u10e6": 287, "media": 9371, "\u4ea7": 772, "\u6f3f": 4043, "\u90a2": 6928, "\u9365": 7105, "\u89e5": 6238, "\u58ae": 1876, "##ai": 8982, "##oot": 13187, "##\u9eb5": 20991, "##\u6beb": 16747, "\u51e0": 1126, "[unused3]": 3, "##ration": 11103, "\u5fb9": 2549, "\u59cd": 1994, "\u81b3": 5612, "##\u5bde": 15231, "##\u5ec1": 15495, "\u8494": 5884, "##\u8b80": 19421, "\u6ab3": 3599, "##\u9cd7": 20906, "\u8fdf": 6826, "\u740a": 4418, "\u832d": 5757, "\u5b81": 2123, "\u6ec5": 3994, "logo": 8529, "480": 9482, "##\u5b43": 15150, "##\u6c60": 16794, "\u6e9c": 3977, "##\u8c12": 19514, "\u7f22": 5363, "\u6689": 3261, "1931": 9639, "##\u54cb": 14565, "\u5b50": 2094, "\u94e2": 7202, "##\u5cac": 15331, "##\u5925": 14976, "##\u4e43": 13775, "##\u6015": 15643, "##\u8393": 18860, "##zone": 11004, "##\u8b70": 19416, "##life": 10359, "stage": 12731, "\u8108": 5548, "game": 9033, "\u98a4": 7588, "\u4f5b": 867, "##81": 9313, "##\u9f52": 21028, "##\u66d6": 16338, "\u81ea": 5632, "\u6241": 2793, "209": 10381, "\u5077": 982, "##ken": 11285, "\u9f0b": 7958, "##!": 13317, "##\u5f57": 15555, "##\u5f66": 15561, "##\u6d32": 16885, "##\u701f": 17169, "##\u9854": 20600, "143": 9572, "##\u78d0": 17889, "\u5a62": 2043, "store": 8719, "##\u81e3": 18685, "\u706b": 4125, "##\u4e34": 13764, "\u54ee": 1527, "\u6d43": 3838, "##\u970f": 20511, "##\u25aa": 13607, "##\u82ef": 18795, "\u85aa": 5959, "\u25cb\u25cb": 9423, "##ein": 11858, "##\uff09": 21078, "\u6545": 3125, "##\u586c": 14914, "\u63c4": 2985, "\u7955": 4861, "net": 8336, "398": 11425, "\u621f": 2776, "##\u7e7c": 18319, "##\u845b": 18924, "024": 13002, "##\u609f": 15697, "##\u886b": 19193, "pa": 9519, "##\u53a6": 14393, "##sit": 12618, "\u8bc0": 6394, "##\u6a3d": 16631, "##\u725d": 17339, "##\u7384": 17428, "##\u9817": 20582, "##\u8d3c": 19649, "##\u809a": 18553, "\u7a4d": 4948, "\u712f": 4194, "##rid": 10804, "\u94a7": 7172, "\u3017": 529, "\u646f": 3041, "\u6c8c": 3757, "\u8271": 5681, "search": 9168, "3kg": 9619, "\u83ba": 5817, "m8": 10914, "867": 11932, "bb": 8638, "##next": 12397, "##bscribe": 12980, "##\u5494": 14531, "##\u5dbd": 15386, "\u69cd": 3541, "##\u50da": 14069, "\u6a0a": 3557, "##\u6367": 15999, "##\u5538": 14608, "##\u7e54": 18308, "##\u8f44": 19806, "\u52fe": 1256, "##\u918b": 20062, "##\u7d46": 18233, "\u5eec": 2452, "\u60df": 2668, "##43": 9433, "script": 10860, "##\u9798": 20551, "\u7acb": 4989, "##\u00b3": 13354, "##ro": 8607, "\u539f": 1333, "\u7762": 4718, "\u8a18": 6250, "##\u8b17": 19396, "##\u5360": 14361, "##\u7d68": 18241, "\u5f53": 2496, "##\u9493": 20214, "##\u304b\u308b": 11571, "##\u529b": 14270, "[unused55]": 55, "##\u9a97": 20802, "\u5de8": 2342, "##\u86f9": 19097, "##\u9f3e": 21023, "\u5373": 1315, "\u9801": 7514, "\u304b\u3089\u304a": 9669, "\u507f": 985, "e88": 13313, "##\u83bf": 18876, "##\u874c": 19126, "##\u8a85": 19344, "\u9226": 7049, "208": 9894, "##\u94c5": 20249, "\u63d6": 2992, "##world": 10120, "357": 12494, "##\u7237": 17324, "cfa": 9984, "\u8429": 5856, "lily": 11228, "\u5b8f": 2131, "##\u59b2": 15042, "##\u7ebe": 18352, "##\u9080": 19970, "shirt": 12060, "thread": 11164, "##\u9c13": 20870, "\u59ea": 2008, "\u3055\u308c\u3066\u3044\u307e\u3059": 9604, "##\u6cbc": 16838, "##\u7741": 17766, "\u6575": 3147, "##\u3066": 8312, "##\u307b": 13672, "##\u6c90": 16816, "\u8dbe": 6644, "##lin": 9029, "##h": 8199, "\u975a": 7475, "##rk": 10364, "\u25b2topaug": 10558, "##\u7ec0": 18354, "##\u73cf": 17455, "##iko": 11480, "\u6ed4": 4000, "\u5fff": 2576, "##64": 9165, "g4g": 10613, "##\u8178": 18648, "##gin": 10822, "##\u745b": 17503, "\u60a6": 2643, "##\u3059\u308b": 9840, "##\u9e8b": 20981, "\u305d\u3057\u3066": 11812, "op": 10208, "##\u821e": 18716, "##\u997c": 20717, "##\u5499": 14536, "\u4f86": 889, "\u5c99": 2268, "##\u53ae": 14397, "\u9055": 6889, "##\u6fc3": 17140, "##\u6700": 16354, "##\u5e94": 15475, "##\u8c06": 19504, "##\u800b": 18501, "cell": 11490, "##\u7c3d": 18144, "##\u5189": 14140, "##\u7529": 17558, "mo": 11303, "##\u8611": 19039, "##\u88ad": 19216, "##\u5ba4": 15204, "\u71d4": 4241, "\u8bab": 6377, "\u9a01": 7696, "\u3066": 555, "\u53e8": 1370, "##\u8346": 18826, "##\u70c3": 17220, "nt": 8495, "fps": 11671, "##\u6b04": 16665, "##\u304d\u307e\u3059": 12506, "\u96f6": 7439, "##\u60b4": 15708, "b12": 12699, "\u7cec": 5139, "1mdb": 12757, "\u8ff0": 6835, "##\u6a2a": 16623, "##\u6b6a": 16696, "##\u75b1": 17614, "##\u6634": 16280, "ing": 10139, "\u8110": 5553, "\u58f2": 1899, "##\u839e": 18863, "##cm\uff5e": 13123, "\u8e22": 6677, "##2009": 9948, "\u7562": 4525, "101vip": 11428, "##\u8166": 18639, "\u6467": 3039, "##\u9ebd": 20996, "##\u515c": 14112, "\u7fd4": 5425, "##\u77b3": 17806, "77": 8411, "##\u622e": 15838, "##\u8681": 19066, "##\u6795": 16416, "\u54c9": 1507, "##\u5679": 14755, "##r4": 13032, "\u75de": 4579, "##\u307f\u307e\u305b\u3093\u304b": 11775, "##\u742a": 17484, "##\u8aad": 19362, "pm2": 9150, "m5": 12802, "##\u56dd": 14782, "##\u970e": 20510, "entertainment": 11679, "chocolate": 12474, "\u7fe6": 5430, "##\u9dfa": 20935, "##\u608d": 15693, "##\u9e4a": 20960, "\u6a2f": 3568, "##g": 8181, "chi": 12205, "##\u53df": 14419, "##\u8a0e": 19302, "##\u30a3": 12403, "##\u6eab": 17041, "\u76f1": 4682, "##top": 10075, "##\u7f44": 18435, "##\u510b": 14083, "##85": 9169, "\u8f8d": 6780, "\u71be": 4232, "##\u25cb": 10299, "##ground": 13195, "##\u6d54": 16907, "\u25c6": 470, "##\u9ad2": 20823, "blogtitle": 10055, "##\u30eb\u30cf\u30a4\u30c8": 13304, "\u7c2b": 5084, "\u95cc": 7296, "\u9ad8": 7770, "##\u3093\u306a": 10386, "##\u755c": 17580, "[unused72]": 72, "##\u7565": 17583, "##\u73e9": 17463, "318": 10189, "1": 122, "docomo": 11358, "##\u06e9": 13441, "##\u7a9f": 18031, "\u8d6b": 6622, "##\u5937": 14986, "\u4fb7": 911, "\u52e2": 1248, "##\u0e01": 13442, "##\u57fc": 14883, "##\u7c37": 18142, "##\u967d": 20439, "221": 10118, "\u634f": 2934, "\u8ef8": 6729, "##\u8299": 18753, "jennifer": 12652, "\u7a74": 4954, "##\uff14": 9484, "##\u5ae3": 15130, "##\u5254": 14245, "\u90ed": 6958, "##\u56f3": 14797, "##rth": 11207, "##\u1168": 13475, "##\u4eca": 13848, "\u7dd8": 5220, "##\u5b17": 15139, "\u116c": 313, "\u938c": 7112, "##\u9087": 19975, "##\u8ecb": 19780, "##\u6dfb": 16981, "##\u266b": 13630, "##nter": 11526, "\u97ec": 7507, "##uk": 10687, "\u69ff": 3554, "\u92b3": 7076, "##ul": 10086, "\u7edc": 5317, "\u74e4": 4481, "850": 10205, "\u52ab": 1223, "gohappy": 11567, "##\u847a": 18937, "1100": 9393, "\u5806": 1831, "##light": 9638, ";": 132, "##style": 10001, "317": 11491, "##101": 11712, "1938": 9429, "##\u9a65": 20772, "\u541e": 1411, "\u5e2b": 2374, "\u938a": 7111, "association": 11549, "##\u5976": 15016, "##\u30b5": 13685, "##\u914c": 20037, "\u4eb5": 781, "\u6817": 3412, "\u57c3": 1812, "\u7ec4": 5299, "ck": 11623, "\u6657": 3240, "##\u65e2": 16245, "##\u30a9": 13683, "hr": 8967, "##\u6191": 15788, "1971": 9061, "\u5ffb": 2574, "\u266a": 493, "\u81cd": 5624, "\u89c5": 6227, "\u9a70": 7720, "2m": 10725, "##\u54ce": 14568, "##\u63d2": 16048, "##\u6a13": 16616, "\u306f\u3057\u3081\u307e\u3057\u3066": 13012, "\uff57": 8073, "\u652b": 3116, "##\u6a97": 16651, "o": 157, "\u7d91": 5194, "\u7f5a": 5385, "##x5": 12704, "series": 10976, "##\u6ed5": 17058, "##orage": 12669, "\u8d1e": 6565, "##\u7c43": 18148, "\u30c4": 611, "##\u77bf": 17809, "##\u87ba": 19147, "\u4eec": 812, "\u62d2": 2867, "\u7618": 4600, "##\u8dbe": 19701, "##\u953a": 20304, "##\u9662": 20425, "\u7262": 4286, "\u9cb6": 7839, "##\u6b98": 16716, "##\u53a9": 14395, "\u55d6": 1626, "\u8bd5": 6407, "##\u58a9": 14932, "##\u8a5b": 19326, "\u7947": 4856, "##\u65fa": 16257, "\u86c6": 6025, "##\u9913": 20682, "\u8e1f": 6676, "##\u6c4e": 16785, "\u9000": 6842, "##\u6168": 15774, "windows": 8235, "##lina": 11585, "##\u6ee4": 17066, "\u24d8": 426, "##\u68c4": 16525, "##\u7c97": 18167, "\u5e1b": 2368, "##\u8cea": 19606, "1923": 10236, "##\u9c81": 20883, "\u59a8": 1981, "##\u8a98": 19351, "##\u9ec3": 20998, "\u867d": 6006, "\u9edb": 7950, "\u795c": 4866, "\u6cef": 3804, "##\u50d6": 14068, "##\u5fe0": 15623, "lo": 12264, "##\u9686": 20441, "\u62ce": 2865, "\u947d": 7148, "fpx": 13285, "isofix": 11962, "##bor": 12268, "\u68d2": 3472, "brandt": 12855, "##\u9176": 20055, "##18": 8662, "\u3066\u304d\u308b": 12313, "##\u53f1": 14436, "##\u9c7f": 20882, "\u53a6": 1336, "isbn": 8446, "\u55df": 1630, "##\u623b": 15846, "\u5472": 1455, "faq1": 13006, "##\u533f": 14337, "\u93e2": 7129, "1969": 9073, "\u5c24": 2215, "##\u2197": 13525, "##\u9577": 20326, "its": 12894, "\u5854": 1849, "##\u3128": 13723, "\u55b7": 1613, "##\u85f9": 19032, "surface": 9623, "##\u58f3": 14957, "##\u5a07": 15076, "##\u743c": 17494, "##\u6de9": 16970, "\u998d": 7670, "##\u3066\u3082": 10508, "##\u6b65": 16692, "\u6342": 2926, "worldcat": 10698, "\u792b": 4848, "##\u6bd3": 16739, "009": 12292, "##\u86c0": 19081, "##\u97f6": 20568, "\u97f3": 7509, "##\u5f27": 15536, "##\u6876": 16503, "gucci": 10258, "point": 9891, "60": 8183, "##\u534f": 14348, "##\u591c": 14972, "\u4ead": 777, "land": 11169, "##\u5ccb": 15338, "##\u611a": 15751, "\u30cb": 615, "##\u6539": 16178, "##\u85c9": 19021, "16g": 12823, "##\u4e2b": 13760, "p": 158, "\u9602": 7324, "##ison": 10316, "\u62ac": 2848, "\u852d": 5923, "\u4e3a": 711, "\u722a": 4259, "\u8679": 6004, "\u8ad7": 6317, "\u3066\u3082": 9272, "mind": 12573, "\u5531": 1548, "imsean": 12087, "\u8086": 5487, "##ton": 8626, "e6": 11639, "20g": 12793, "##\u67e9": 16447, "\u8c85": 6504, "##\u7b9d": 18108, "##\u8d8a": 19689, "##\u8f85": 19831, "##\u9f61": 21029, "##\u583a": 14901, "\u9f99": 7987, "\u1173": 318, "##\u62dc": 15933, "ed": 9599, "##\u7081": 17195, "##\u7b0f": 18066, "##\u509a": 14049, "##\u7360": 17415, "89": 8426, "##\u7b3a": 18077, "\u307f": 568, "\u87a8": 6087, "\u77fe": 4770, "\u7ef8": 5339, "##\u561c": 14716, "##\u9f9a": 21045, "\u4ea1": 767, "##\u69ad": 16588, "\u7e6d": 5259, "##\u868c": 19069, "\u9451": 7141, "cam": 12722, "\u8587": 5948, "##\u83b9": 18873, "##3000": 13141, "o2o": 8590, "\u6dde": 3908, "460": 10685, "##\u3122": 13719, "##\u56e1": 14786, "##\u7eb8": 18348, "##\u306c": 13670, "4066": 9607, "\u81d3": 5625, "##\u2044": 13510, "##\u6583": 16208, "##\u4f8b": 13948, "##\u4e32": 13763, "##mg": 8882, "\u975c": 7477, "top": 8237, "##\u7f06": 18405, "##ux": 9549, "##verse": 11174, "##\u9169": 20047, "##cky": 11216, "\u7eed": 5330, "##\u837d": 18853, "\u8821": 6110, "\u5a06": 2018, "[unused51]": 51, "\u86f9": 6040, "\u7a3f": 4943, "\u8707": 6047, "\u89b3": 6219, "articles": 12431, "\u5915": 1911, "memory": 11910, "##\u8019": 18509, "##\u9015": 19912, "##\u4e82": 13805, "aa": 9563, "##\u7cef": 18197, "##\u8881": 19202, "##\u901d": 19917, "\u5a74": 2048, "sp": 9716, "##\u8b14": 19395, "\u8f72": 6765, "##\u529f": 14273, "##\u5589": 14647, "##\u807e": 18539, "##\u9edb": 21007, "\u54ab": 1489, "\u515c": 1055, "\u5187": 1081, "\u951a": 7232, "\u63b2": 2977, "\u87ce": 6095, "sas": 12120, "##als": 12707, "##\u6868": 16501, "\u7515": 4490, "##\u9511": 20287, "\u8b9a": 6367, "##mit": 11104, "91tv": 12586, "400": 8230, "\u8568": 5938, "##\u4e8c": 13810, "##\u833c": 18823, "\u8941": 6197, "\u6770": 3345, "##\u6bcf": 16737, "##\u7aa8": 18035, "\u6a84": 3590, "##\u96f3": 20495, "##\u887f": 19201, "ex": 9577, "\u7350": 4355, "##ub": 10544, "##\u2462": 13558, "##\u899a": 19271, "\u7e08": 5235, "##\u7740": 17765, "\u658b": 3153, "\u64f4": 3097, "##\u8f3f": 19805, "pt": 10791, "\u8385": 5797, "\u2476": 417, "\u6382": 2953, "\u7545": 4517, "##form": 12725, "##\u71c3": 17291, "##\u5efa": 15513, "##\u96c7": 20473, "future": 11814, "\u84a8": 5890, "\u9452": 7142, "\u7194": 4223, "##\u61d1": 15806, "##\u8ab2": 19364, "\u597d": 1962, "\u8bc9": 6401, "##\u797f": 17936, "##\u6413": 16070, "\u5c6f": 2254, "##\u7edf": 18377, "\u5fcd": 2556, "\u96cf": 7422, "\u8089": 5489, "ev": 12311, "##\u7d10": 18210, "\u56a8": 1711, "\u5bdd": 2173, "\u5212": 1153, "brian": 11754, "##\u82af": 18765, "\u83fd": 5840, "418": 12978, "##\u7814": 17834, "##\u5c0f": 15264, "1897": 12084, "\u919b": 7010, "\u80d6": 5523, "\u75be": 4565, "\u9557": 7260, "##\u2764": 10269, "##ique": 11324, "\u4f3d": 850, "de": 8363, "##\u9e4c": 20961, "\u7d0d": 5152, "##food": 12973, "##\u7284": 17356, "##\u728d": 17358, "##ik": 10445, "\u987b": 7557, "\u82db": 5729, "jcb": 10557, "nb": 9254, "\u6a23": 3564, "##\u6cca": 16845, "##\u6d9d": 16933, "##\u6a79": 16644, "f2": 9675, "##\u8096": 18551, "##\u671d": 16365, "\u9b47": 7792, "\u62cc": 2863, "##\u7e34": 18299, "##\u8bae": 19436, "\u8b4e": 6350, "\u7887": 4806, "##qq": 10624, "\u725f": 4283, "\u308a\u306e": 10592, "\u62f1": 2890, "##\u62b1": 15906, "\u5c48": 2235, "\u9f9f": 7991, "\uff13": 8031, "##\u0456": 13426, "pacific": 12625, "##\u503a": 14022, "##\u8ac7": 19369, "##\u9b54": 20852, "\u89c8": 6229, "##\u97a0": 20552, "##\u2477": 13569, "##sm": 10244, "\u6248": 2795, "_": 142, "\u871c": 6057, "ob": 12639, "##\u72c4": 17370, "##\u60ac": 15704, "166": 9771, "##\u30aa": 11238, "##\u5729": 14820, "##\u916e": 20050, "something": 12713, "\u7d39": 5171, "[unused73]": 73, "\u6fe0": 4090, "\u8671": 6003, "minkoff": 11018, "##\u308c\u307e\u3059": 11745, "maria": 12096, "\u6728": 3312, "##\u52f3": 14308, "##\u03c0": 13393, "##\u6fb9": 17136, "##\u6849": 16486, "\u25e0": 476, "\u8431": 5858, "team": 9597, "\u9886": 7566, "wi": 8541, "##less": 9920, "\u547b": 1460, "1tb": 12430, "##\u6d89": 16925, "\u6e6f": 3966, "\u536f": 1312, "\u251c": 436, "tc": 12858, "##\u4ec7": 13847, "exchange": 10974, "##\u6773": 16404, "##\u6811": 16466, "\u5140": 1037, "\u8343": 5768, "##\u30fc\u30c8": 9006, "\u9433": 7135, "##wi": 10958, "##\u03c8": 13401, "\u51bd": 1110, "\u7172": 4216, "##\u69fb": 16609, "200": 8185, "##\u7d39": 18228, "\u5a9a": 2055, "\u9083": 6916, "\u97a6": 7497, "##\u8df3": 19720, "resort": 10401, "##\u8f66": 19813, "\u60b5": 2652, "\u862d": 5984, "\u5ebe": 2437, "\u7d1a": 5159, "##\u6e09": 16985, "\u78bc": 4826, "##22": 8683, "\u89d0": 6233, "\u5929": 1921, "\u695d": 3505, "##\u8b01": 19389, "##\u8bb2": 19439, "##\u9727": 20517, "##http": 11116, "##\u8c50": 19550, "\u1175": 320, "windows7": 12258, "\u9ad4": 7768, "##\u3059": 8764, "\u6a9c": 3595, "##ound": 11477, "##\u5f62": 15558, "##\u4e4e": 13782, "\u91ca": 7025, "jimmy": 10317, "##\u92e4": 20139, "\u7624": 4606, "\u830f": 5750, "\u6bb2": 3665, "\u5b75": 2118, "##\u7a1e": 17987, "##\u8b74": 19418, "gaga": 12762, "##\u8abc": 19366, "salvatore": 10078, "\u586b": 1856, "\u7cbc": 5123, "\u883b": 6116, "men": 11305, "##\u55e6": 14691, "##\u59cd": 15051, "\u51ea": 1130, "##\u5b85": 15182, "##\u7b46": 18079, "fe": 12605, "##\u8bf1": 19487, "##admin": 11454, "eds": 12191, "##\u8cb0": 19578, "\u5165": 1057, "##\u8dd6": 19709, "##\u6c32": 16773, "##\u8418": 18906, "\u977c": 7488, "\u58ef": 1897, "\u6263": 2807, "\u618e": 2729, "##\u5914": 14967, "##\u5353": 14351, "\u5412": 1404, "##\u4e03": 13730, "\u702c": 4115, "##\u696b": 16567, "##\u652a": 16172, "##\u7ee3": 18380, "##\u9f4a": 21025, "##ye": 10522, "\u6101": 2687, "ofo": 9574, "jr": 8602, "##\u840a": 18901, "##\u84e6": 18964, "##\u9975": 20713, "##\u6d2e": 16883, "law": 11353, "##\u74d2": 17534, "\u63fd": 3005, "\u64c2": 3076, "fung": 13238, "##84": 9545, "\u8d27": 6573, "##ws": 10402, "\u8535": 5924, "\u5742": 1771, "\u53e9": 1371, "##\u8a6b": 19334, "\u723d": 4272, "\u8c7a": 6502, "inn": 9696, "##\u1161": 10928, "##\u6382": 16010, "##\u86ed": 19093, "##\u6ba4": 16719, "\u6cd7": 3792, "##\u70bc": 17216, "\u57df": 1818, "##\u7f79": 18452, "\u54bd": 1498, "...": 8106, "\u56a3": 1709, "##\u5708": 14807, "##\u57ab": 14864, "##\u740f": 17477, "##\u80be": 18570, "##\u6eff": 17078, "\u8393": 5803, "##\u62e9": 15942, "##q": 8326, "##\u53cd": 14410, "\u9c91": 7829, "##\u2716": 13635, "\u88ab": 6158, "##ox": 9747, "nvidia": 9503, "\u8288": 5690, "1925": 10087, "##\u7d13": 18211, "\u7d21": 5163, "\u8a85": 6287, "##\u6696": 16322, "ios": 8276, "\u044f": 259, "\u9896": 7577, "##\u55e1": 14688, "##\u82b9": 18770, "##\u973e": 20524, "\u816b": 5584, "##uce": 12051, "\u9320": 7091, "##\u306a\u3089": 10145, "##\u65ad": 16228, "\u786b": 4800, "\u9675": 7377, "##\u96be": 20467, "##\u6b92": 16713, "980": 10536, "##\u50b3": 14058, "\u618b": 2728, "nikkie": 13303, "pizza": 10315, "\u5f1b": 2474, "r9": 12674, "\u8c79": 6501, "rf": 10586, "##\u95b1": 20345, "\u5659": 1685, "\u574f": 1776, "\u91cd": 7028, "man": 8791, "lenovo": 13031, "##520": 13241, "\u6075": 2625, "\u6de1": 3909, "##\u0e2d": 13448, "##rmin": 13116, "##\u7089": 17197, "##\u8188": 18656, "##\u83f2": 18895, "##\u87b3": 19146, "\u82fb": 5742, "mini": 8672, "##\u9a86": 20793, "\u620d": 2765, "##\u51e4": 14185, "cafe": 8377, "\u6536": 3119, "manager": 11039, "146": 9630, "##\u55b1": 14665, "\u504f": 974, "##\u90ba": 19999, "##\u63cd": 16045, "##nge": 10983, "##\u67d2": 16437, "\u89e6": 6239, "##\u0435": 13406, "\u821e": 5659, "##83": 9559, "##\u841d": 18907, "l1": 12421, "##home": 10479, "\u7814": 4777, "55": 8222, "30000": 11158, "\u5c49": 2236, "age": 12162, "life": 8562, "##\u5c55": 15302, "##\u6500": 16159, "\u8a95": 6293, "vga": 13140, "yy": 9453, "\u566c": 1693, "##\u5b71": 15173, "cisco": 11010, "\uff04": 8016, "##a1": 11414, "##\u5b99": 15193, "##bin": 10448, "##ama": 11135, "editor": 11544, "##\u56bc": 14772, "\u2194": 372, "\u7efe": 5343, "18": 8123, "\u9632": 7344, "##ip": 9032, "##\u52a3": 14276, "##\u5207": 14204, "##\u7fa1": 18463, "\u9535": 7245, "62": 8356, "\u8392": 5802, "##\u255e": 13589, "##\u592a": 14979, "##\u96cf": 20479, "[unused60]": 60, "\u633d": 2924, "keep": 11654, "##\u67ab": 16424, "\u8c0b": 6450, "\u9cf6": 7856, "\u55ea": 1636, "\u7c21": 5080, "opec": 9416, "##\u6389": 16014, "##lam": 12953, "\u66a8": 3270, "\u767a": 4632, "\u7c6c": 5098, "\u6839": 3418, "\u9580": 7271, "##016": 8705, "##\u5524": 14599, "##\u53eb": 14430, "##\u5f0f": 15523, "##\u5fa1": 15596, "\u4e88": 750, "cut": 12322, "##\u884d": 19179, "##\u8018": 18508, "\u85cd": 5965, "##\u6295": 15889, "##\u601d": 15647, "\u5471": 1454, "\u77cd": 4754, "##\u8651": 19048, "\u30b9\u30ad\u30eb": 11862, "##\u3001": 13645, "##\u4f30": 13901, "\u5a36": 2034, "\u69df": 3547, "\u7b06": 5006, "fan": 11925, "##\u50a8": 14053, "\u5544": 1554, "##\u7d93": 18252, "\u691c": 3493, "##\u843d": 18919, "\u6a3d": 3574, "##\u61b6": 15798, "\u5c7f": 2257, "\u7167": 4212, "\u80f1": 5537, "wx17house": 9973, "\u6000": 2577, "##mar": 11800, "ci": 12364, "\u8bad": 6378, "dl": 11961, "##\u8279": 18742, "\u4fc3": 914, "ar": 8673, "\u8c2d": 6478, "##down": 11140, "##\u5151": 14107, "\u59aa": 1983, "##\uff20": 21088, "\u840d": 5847, "\u8e6c": 6700, "##\u52f5": 14309, "##\u51ef": 14189, "\u6f0f": 4026, "\u61e6": 2751, "625": 12218, "##\u5b9c": 15196, "##\u7fe9": 18488, "\u56fe": 1745, "\u8d4a": 6601, "##\u864f": 19046, "336": 12073, "il": 12197, "ui": 8840, "##\u9632": 20401, "##\u59c6": 15047, "##\uff52": 11586, "##\u954c": 20311, "##\u5021": 14013, "\u6fdf": 4089, "##\u91e6": 20095, "##\u8c41": 19542, "##\u4e39": 13767, "\u304b\u304a": 11252, "##\u30a6": 12891, "##\u923e": 20110, "##\u8c4e": 19549, "g6": 12958, "##\u6ee1": 17064, "##blog": 10877, "326": 12044, "\u6291": 2829, "##\u5e95": 15476, "made": 10123, "maker": 11389, "##\u7b97": 18107, "##\u9955": 20699, "jack": 9850, "##\u9ab8": 20817, "\u846b": 5872, "##ting": 9107, "\u88ca": 6165, "\u7b8b": 5044, "\u55c7": 1620, "\u89d1": 6234, "##\u53ef": 14434, "jobs": 13103, "\u8151": 5577, "##\u89d0": 19290, "\u820c": 5649, "##\u9e93": 20983, "##ys": 9449, "vdc": 10888, "##\u5bd0": 15226, "\u6551": 3131, "\u6316": 2905, "\u973d": 7466, "\u9761": 7480, "\u6094": 2637, "07": 8155, "\u50cf": 1008, "hd": 8407, "##\u5b9a": 15194, "[unused37]": 37, "\u513c": 1035, "##\u85dc": 19027, "\ufe5d": 8009, "powerpoint": 12176, "##\u68fa": 16543, "\u9f50": 7970, "##011": 12424, "##\u7652": 17675, "\u904b": 6880, "\u8d76": 6628, "\u9a0e": 7697, "##\u7574": 17590, "\u8e66": 6698, "##\u256f": 13593, "\u83d3": 5828, "\u9054": 6888, "\u95f2": 7312, "##\u57d5": 14873, "##\u5be2": 15234, "\u9304": 7087, "wam": 9667, "1895": 10794, "161": 9608, "##\u58c5": 14938, "##\u6f51": 17105, "##\u90ed": 20015, "##\u93c8": 20179, "##\u55c7": 14677, "\u51c4": 1113, "\u94ed": 7208, "you": 8357, "\u9d5c": 7865, "##37": 9474, "##\u5426": 14472, "##\u6f8d": 17127, "##ers": 8755, "\u7b5d": 5034, "##\u7f5a": 18442, "##ti": 9007, "\u746f": 4455, "\u9891": 7574, "twd600": 11230, "\u9e6b": 7914, "\u9215": 7046, "##t": 8165, "\u6c16": 3699, "kids": 11826, "##\u0645": 13436, "\u8cca": 6538, "\u63a8": 2972, "##\u1110": 13467, "bbe": 12517, "##\u3085": 13675, "\u61a8": 2736, "##\u5497": 14534, "\u7699": 4647, "##\u5d6c": 15377, "\u58e9": 1893, "##\u88f9": 19238, "##\u8bb4": 19441, "##\u947c": 20204, "##\u96ef": 20492, "##\u9a5a": 20768, "\u3059\u304f": 12616, "##\u5321": 14327, "\u6271": 2818, "bc": 10954, "##\u5d01": 15354, "##\uff3c": 21090, "##\u5ed6": 15502, "##\u8170": 18644, "\u6a3e": 3575, "\u81f3": 5635, "\u8f46": 6751, "123": 8604, "##osa": 12946, "\u8755": 6071, "\u5b78": 2119, "\u2312": 404, "\u8d3b": 6591, "##\u03c5": 13398, "##\u5077": 14039, "\u8236": 5667, "##word": 10184, "\u9541": 7250, "\u56d4": 1721, "wikia": 8708, "\u67b7": 3374, "oculus": 10480, "399": 9612, "##ate": 9690, "##\u53f2": 14437, "##\u82d2": 18781, "inwedding": 12134, "\uff7d": 8091, "\u603c": 2601, "\u856d": 5941, "s": 161, "\u0261": 199, "\u56eb": 1735, "\u7d2e": 5167, "\u8960": 6200, "\u7469": 4453, "230": 9111, "\u83cc": 5826, "tee": 11330, "matt": 12042, "##\u2715": 13634, "##\u7aa0": 18032, "87": 8467, "\u6238": 2788, "\u7dd2": 5219, "if": 8898, "quick": 12345, "\u7da2": 5200, "##\u6f2a": 17091, "##*": 13326, "##\u2666": 13629, "##\u55d6": 14683, "wwdc": 12848, "\u8c6c": 6500, "\uff42": 8052, "\u6176": 2723, "emc": 12341, "##\u6727": 16368, "\u75ea": 4586, "bell": 9993, "##\u7a74": 18011, "\u6f29": 4033, "\u554a": 1557, "\u5374": 1316, "93": 8430, "\u607c": 2630, "##\u765e": 17678, "\u692d": 3495, "##\u3053\u3068\u3092": 12236, "request": 12931, "##\u5b6a": 15169, "##\u1102": 13456, "##\u7bea": 18130, "\u8f3b": 6746, "##\u82c1": 18774, "\u80a4": 5502, "##\u896f": 19260, "##\u900d": 19907, "\u7fbf": 5418, "247": 11128, "##mmy": 12137, "##\u836f": 18847, "##rex": 12437, "\u652a": 3115, "rq": 11635, "\u8d42": 6596, "##\u9244": 20112, "good": 9005, "\u66e6": 3286, "\u7fa1": 5406, "\u520a": 1149, "##tation": 12386, "##\u5e2e": 15433, "##\u5e8a": 15471, "##\u6a94": 16650, "##\u59dd": 15060, "\u64a5": 3060, "##\u5e5f": 15449, "\u4e2a": 702, "\u58c6": 1882, "116": 9070, "abs": 8494, "\u8c98": 6508, "##\u988c": 20628, "\u6400": 3006, "\u67f3": 3394, "\u54a9": 1487, "##mon": 10427, "\u9293": 7069, "##\u4fb6": 13967, "\u7834": 4788, "##ua": 9478, "\u7bc1": 5060, "\u94af": 7176, "##gate": 11695, "##\u203b": 13508, "##\u60eb": 15732, "\u95f9": 7317, "\u53e1": 1364, "##\u54fc": 14587, "\u9310": 7088, "##\u522e": 14224, "##\u6208": 15819, "##\u8896": 19210, "cbc": 8712, "##sis": 10500, "##\u25e2": 13617, "##\u7ae5": 18054, "\u918d": 7006, "\u6d9e": 3877, "##\u8f84": 19830, "\u970f": 7454, "edward": 12259, "##\u8d21": 19624, "\u9ba8": 7801, "##\u8a63": 19331, "\u5386": 1325, "810": 11296, "\u7f61": 5386, "##\u30a4\u30b9": 13203, "##\u65b0": 16230, "\u8ac7": 6312, "mit": 9315, "##\u53e2": 14422, "##lution": 11843, "\u0438": 241, "##ign": 11558, "\u7ec3": 5298, "\u4f4d": 855, "\u9640": 7351, "\u58ca": 1884, "\u85e5": 5973, "##\u8bd8": 19466, "##\u864e": 19045, "\u7eef": 5332, "##\u8bff": 19498, "\u62d9": 2873, "##hur": 13190, "\u82c4": 5718, "##ova": 13067, "\u8272": 5682, "null": 12083, "\u7430": 4430, "cp": 8337, "\u94bb": 7183, "##\u4e1c": 13748, "##\u6b20": 16669, "under": 9997, "##\u8aa4": 19356, "\u69ed": 3549, "\u8d2f": 6581, "122": 9203, "\u71b5": 4230, "##\u989e": 20641, "##\u94bb": 20240, "\u5fdc": 2565, "##\u8fde": 19882, "goo": 9271, "\u83c5": 5822, "##\u6d78": 16920, "\u4fae": 907, "##asia": 11276, "\u71e5": 4246, "##\u55b5": 14668, "\u5948": 1937, "\u8c94": 6507, "\u6ff1": 4097, "\u707e": 4135, "1916": 10772, "##\u8428": 18912, "##\u865e": 19054, "##\u865a": 19051, "##\u92ad": 20131, "\u7490": 4466, "##\u68b0": 16519, "515": 13196, "##\u6dd6": 16961, "##\u7b26": 18073, "##\u9214": 20102, "\u77eb": 4763, "\u5bf9": 2190, "##\u939a": 20174, "##\u7109": 17240, "\u03c9": 232, "\u4fac": 906, "##mus": 13090, "\u7622": 4605, "##\u6d93": 16928, "##\u545c": 14506, "\u5495": 1475, "\u7a6b": 4953, "\u78d5": 4833, "##\u6668": 16304, "\u7206": 4255, "\u9b42": 7789, "\u4fee": 934, "##ball": 11050, "\u9076": 6906, "\u56f1": 1738, "\u971e": 7459, "\u7b72": 5037, "##\u5a1b": 15081, "181": 10111, "##\u79bb": 17952, "\u6399": 2964, "##\u50be": 14062, "\uff11\uff10": 9198, "\u7409": 4417, "\u7726": 4698, "\u9eb8": 7935, "##\u74bd": 17530, "##\u6e3a": 17010, "ss": 10239, "\u5238": 1171, "##\u773e": 17764, "\u6ecc": 3997, "##\u693d": 16555, "google": 8190, "\u8174": 5590, "\u92ae": 7075, "##\u30cb": 13689, "##\u5511": 14596, "##\u5112": 14084, "\u2714": 497, "2007": 8201, "\u5a13": 2022, "\u97c6": 7499, "\u9dd7": 7875, "\u63da": 2993, "##ream": 11714, "\u905b": 6892, "\uff15": 8033, "\u78c1": 4828, "\u8815": 6107, "\u634b": 2930, "dream": 10252, "##\u5727": 14818, "william": 9979, "##\u77d7": 17812, "##\u7921": 17902, "\u9542": 7251, "##xy": 11038, "\u4ed8": 802, "##\u7192": 17279, "##\uff9e": 21120, "##ov": 11689, "##ute": 9710, "##\u991b": 20685, "\u3044\u3057\u307e\u3059": 10342, "##\u5eb7": 15491, "##\u0438": 11000, "##\u8b9e": 19425, "\u7169": 4214, "\u5364": 1307, "##\u9c77": 20879, "frigidaire": 12304, "\u304b": 541, "\u4e70": 743, "##uid": 12520, "\u3057\u306b\u306f\u3068\u3093\u3068\u3093\u30ef\u30fc\u30af\u30b1\u30fc\u30c8\u3092": 12152, "##\u8d13": 19618, "##\u0446": 13421, "\u5bf0": 2186, "\u5575": 1577, "##mber": 10494, "##ring": 10734, "##\u654c": 16184, "##\u30fc\u30b9": 10840, "##nch": 11106, "##\u7378": 17423, "\u9877": 7554, "##\u5c48": 15292, "\u6012": 2584, "\u594f": 1941, "##\u706d": 17184, "##\u63da": 16050, "\u51e4": 1128, "##\u6279": 15878, "\u73fe": 4412, "##fit": 11768, "##ics": 9034, "##\u987e": 20617, "\u80f0": 5536, "##\u7377": 17422, "\u304b\u3042\u308a\u307e\u3059": 11163, "\u66f8": 3292, "bim": 11749, "##\u110c": 13464, "##\u806f": 18531, "##\u58e9": 14950, "##\u80b1": 18565, "%": 110, "##\u2506": 13580, "\u6837": 3416, "\u7fa9": 5412, "##\u968a": 20443, "##bet": 9704, "tea": 9686, "##\u96d1": 20480, "\u8a46": 6265, "\u5b9b": 2138, "##\u6df7": 16978, "\u701a": 4108, "\u7156": 4205, "\u5587": 1589, "##\u3053\u306e": 11087, "mu": 11677, "##\u821c": 18715, "80": 8188, "##\u5132": 14090, "\u8c19": 6463, "##\u9698": 20451, "\u5a9e": 2057, "##\u795e": 17925, "##\u9707": 20505, "\u30d8": 622, "##\u61be": 15799, "##\u90a8": 19988, "\u88f1": 6177, "\u6700": 3297, "\u11ba": 326, "##e": 8154, "998": 13180, "\u00f8": 194, "\u64bb": 3071, "\u7c43": 5091, "\u822b": 5662, "4l": 13297, "\u51c6": 1114, "##\u25a1": 13606, "##\u4f1f": 13893, "##\u54e8": 14580, "\u544b": 1441, "##\u57ae": 14866, "ua": 11107, "##\u6069": 15674, "##\u8718": 19112, "\u86af": 6021, "##ond": 11684, "##\u9e73": 20974, "##\u88f1": 19234, "fantasy": 12436, "\u4ece": 794, "\u723e": 4273, "\u9a84": 7734, "##\u613f": 15760, "\u501c": 954, "\u8b80": 6364, "inside": 13157, "##\u7817": 17836, "##\u80ae": 18563, "\u755d": 4524, "##\u6027": 15652, "\u6d46": 3841, "222": 9918, "[unused61]": 61, "##\u55ab": 14661, "\u7279": 4294, "x6": 12121, "##\u5490": 14529, "jim": 11268, "\u63ac": 2975, "\u97e9": 7506, "##\u5e1c": 15426, "##\u724d": 17335, "##\u7370": 17419, "\u975e": 7478, "[unused33]": 33, "\u73c0": 4391, "south": 10801, "##\u7a1f": 17988, "\u51a8": 1098, "\u5c42": 2231, "##\u60e8": 15730, "\uff03": 8015, "##\u5188": 14139, "\u5254": 1188, "\u6669": 3248, "\u5638": 1675, "\u56ca": 1718, "##\u556b": 14628, "##\u723e": 17330, "\u704f": 4119, "\u779f": 4740, "##\u4e3e": 13772, "##\u56d1": 14777, "##name": 10509, "\u96c9": 7417, "\u7ec5": 5300, "\u8bf0": 6429, "##\u89c8": 19286, "\u5e9f": 2426, "##\u8d32": 19641, "\u68a7": 3458, "\u7728": 4699, "##\u5faa": 15599, "##\u664b": 16289, "\u6247": 2794, "##\u68d2": 16529, "di": 9796, "422": 12721, "##\u5e78": 15458, "\u7009": 4102, "jj": 11095, "##\u8bcd": 19461, "##\u9192": 20065, "bonnie": 12972, "\u4e14": 684, "\u65e5": 3189, "290": 9845, "\u9a82": 7733, "##md": 10638, "howard": 11312, "##ce": 8328, "20cm": 13309, "##\u96c6": 20472, "\u8f90": 6781, "googlemsn": 12046, "\u27a4": 508, "##\u9065": 19955, "##19": 8818, "\u6cf7": 3809, "##\u95c7": 20351, "##\u62d4": 15926, "table": 10809, "##tore": 12941, "\u771e": 4695, "##co": 8588, "report": 10407, "\u8ba1": 6369, "##\u5bc5": 15222, "##\u8ce1": 19601, "\u513f": 1036, "##ash": 9889, "\u65b9": 3175, "[unused63]": 63, "\u64e0": 3089, "\u773e": 4707, "##\u306a\u305f\u306e": 11002, "\u53f6": 1383, "##\u987f": 20618, "##888": 10053, "##\u98a6": 20646, "\u263a": 484, "\u5506": 1534, "##\u9c49": 20876, "\u60c5": 2658, "\u0648": 273, "\u00f7": 193, "\u5bc2": 2163, "\u3044\u3044\u3048": 8938, "\u83e9": 5835, "##\u78a9": 17877, "\u8a63": 6274, "##\u221f": 13534, "##en": 8329, "##\u5167": 14115, "\u76bf": 4654, "yam": 8107, "\u9698": 7394, "##c": 8177, "##\u99c4": 20742, "jean": 10483, "##\u6e96": 17033, "sql": 9078, "[unused35]": 35, "##\u64ab": 16119, "cook": 12703, "\u6f7a": 4064, "##\u58e4": 14949, "##\u66a8": 16327, "406": 12563, "dior": 8639, "##\u6b63": 16690, "##\u710a": 17241, "traction": 12600, "##\u8bca": 19459, "##\u7db2": 18263, "##\u8907": 19242, "##\u2467": 13563, "\u6ab8": 3600, "\u634d": 2932, "##\u30c4": 10419, "private": 13233, "\u96d1": 7423, "##\u6f88": 17126, "\u625b": 2806, "\uff43": 8053, "##son": 8535, "##\u992e": 20689, "##\u8ac4": 19368, "##\u8b20": 19400, "\u4e54": 730, "##\u5458": 14504, "down": 10243, "lake": 10556, "\u54c7": 1505, "\u52b2": 1226, "\u846d": 5874, "104": 8503, "##\u30a4\u30f3": 10108, "##\u5907": 14963, "##\u5577": 14636, "\u96a8": 7401, "##\u5b51": 15152, "##\u273f": 13640, "\u8be1": 6417, "##\u66a7": 16326, "\u6d63": 3854, "\u6f88": 4069, "##\u5361": 14362, "##\u7940": 17910, "##\u8713": 19109, "##\uff9f": 21121, "##\u7cb5": 18178, "\u52a0": 1217, "##\u3088\u308a": 10190, "##3c": 12031, "\u7de8": 5226, "dan": 11404, "##\u5275": 14258, "##\u70ba": 17215, "\u51b7": 1107, "##\u75f1": 17646, "\u8f03": 6733, "mar": 9118, "\u5c15": 2210, "\u67b0": 3370, "\u7a1f": 4931, "\u8356": 5776, "##\u7a84": 18019, "three": 8844, "\u6302": 2899, "\u571f": 1759, "##\u4f60": 13929, "engine": 11764, "\u4e11": 682, "##\u7d2e": 18224, "##\u9589": 20330, "352": 12091, "\u8584": 5946, "##ave": 12529, "focus": 11452, "##\u5287": 14263, "##\u8e42": 19742, "##\u5653": 14739, "village": 12497, "\u78ef": 4838, "\u5624": 1664, "\u5428": 1417, "\u6e0e": 3932, "product": 11691, "\u9621": 7340, "##\u4e89": 13808, "\u809a": 5496, "\u8611": 5982, "\u6369": 2944, "\u5b6a": 2112, "##\u7b03": 18062, "##\u5c07": 15257, "\u834a": 5771, "\u5a55": 2041, "\u54cf": 1512, "\u9ab6": 7758, "##\u845a": 18923, "0fork": 8453, "4500": 9805, "\u59e8": 2007, "\u8840": 6117, "##\u8efc": 19787, "xr": 11165, "##\u5ba6": 15206, "\u7620": 4603, "\u9647": 7356, "\u6e05": 3926, "\u9818": 7526, "ll": 10856, "\u3089\u308c\u305f": 11512, "##space": 12246, "\u8457": 5865, "golden": 12746, "\u90b0": 6936, "##\u52ab": 14280, "cdma": 12902, "\u9945": 7635, "\u56e4": 1732, "\u59a3": 1978, "20": 8113, "maps": 12446, "jay": 12541, "##\u5bc2": 15220, "##\u9ee8": 21012, "##\u6843": 16482, "##\u500c": 14001, "technology": 11061, "\u7121": 4192, "##ico": 10641, "##\u5457": 14503, "\u9802": 7515, "\u30b5": 603, "##\u8541": 18987, "nhk": 9689, "\u5048": 970, "##nda": 12715, "##\u73ee": 17466, "\u1102": 290, "\u8c0c": 6451, "##ab": 11008, "\u75a3": 4551, "2025": 8950, "##\u5bf9": 15247, "\u4f01": 821, "##\u5f3a": 15544, "##gio": 12676, "##\u6482": 16104, "##\u7816": 17835, "\u8e35": 6683, "\u8054": 5468, "##\u9d6c": 20925, "\u9968": 7646, "50": 8145, "##\u25cf": 9037, "##\u93d6": 20180, "\u96bd": 7409, "##\u8fdb": 19879, "\u4ea6": 771, "##\u4f51": 13916, "##\u516d": 14120, "\u0631": 266, "\u79bd": 4896, "##ien": 12023, "\u6025": 2593, "\u73de": 4402, "shtml": 11501, "\u7b60": 5035, "\u743c": 4437, "\u6c4e": 3728, "##cam": 12438, "\uff12\uff10": 10327, "##\u6495": 16113, "\u55da": 1627, "\u6301": 2898, "##\u518c": 14142, "##\u6cb8": 16835, "\u695e": 3506, "\u7075": 4130, "\u8ba7": 6373, "\u9f20": 7962, "\u7292": 4302, "work": 10782, "\u5410": 1402, "\u8511": 5912, "ns": 10593, "women": 12912, "##\u53ca": 14407, "##\u664f": 16291, "##\u6eaf": 17042, "383": 12510, "##\u7230": 17319, "##\u87a2": 19143, "\u93d6": 7123, "##\u9150": 20039, "##\u6bfd": 16749, "\ufe36": 7994, "##\u6cbb": 16837, "\u51f3": 1135, "\u3053": 545, "\u643d": 3026, "\u78a9": 4820, "demo": 10828, "\u65a9": 3168, "v5": 11133, "\u8d66": 6620, "1980": 8499, "##\u4e1a": 13746, "\u5f0f": 2466, "\u5f4e": 2494, "\u949f": 7164, "##\u563f": 14735, "\u741b": 4422, "##\u6771": 16403, "\u5c09": 2202, "walker": 12651, "##\u7ae3": 18053, "\u5bb9": 2159, "\u54c1": 1501, "\u63a1": 2967, "##ito": 12899, "##\u65d6": 16242, "\u89c2": 6225, "##\u9540": 20306, "\u6dfc": 3925, "##\u7efd": 18399, "##\u8358": 18834, "\u5177": 1072, "305": 10849, "\u4e8b": 752, "\u91cc": 7027, "##\u044f": 12992, "u11": 13235, "##\u6c46": 16782, "16gb": 11340, "paul": 8999, "##\u82db": 18786, "\u9c81": 7826, "\u5fc5": 2553, "\u61c2": 2743, "\u9daf": 7873, "1944": 9462, "\u5a11": 2021, "##\u80ed": 18591, "##\u985e": 20603, "\u8c82": 6503, "306": 10576, "\u8859": 6126, "##\u0448": 13423, "##ague": 12998, "##\u7f18": 18414, "##\u5bc6": 15223, "##\u304b\u3089": 8825, "\u5ac1": 2063, "action": 10805, "##\u7406": 17472, "\u8a2a": 6256, "honda": 11890, "##\u6570": 16201, "##\u306f": 8319, "\u304b\u3042\u308b": 10070, "##\u7eaf": 18340, "##\u5371": 14371, "\u5c3f": 2228, "##\u5b30": 15144, "\u8028": 5454, "\u965f": 7366, "##\u514c": 14104, "taiwan": 8674, "\u5577": 1579, "\u6387": 2955, "\u6daa": 3887, "##point": 11112, "##\u5448": 14496, "##\u911e": 20026, "##\u5c50": 15300, "##\u3053": 8557, "1860": 11990, "##\u4e19": 13745, "##\u82f1": 18796, "\u8bd1": 6406, "##\u8327": 18810, "\u8302": 5744, "wave": 12761, "##\u594b": 14996, "\u3055\u308c\u308b": 12033, "happy": 9200, "##\u5dd4": 15390, "##\u7095": 17202, "\u4fd0": 919, "##\u310e": 13712, "\u6d2a": 3825, "\u9ecd": 7943, "lumia": 11506, "##\u5835": 14900, "##:": 13332, "##\uff3b": 21089, "1949": 8594, "\u90f4": 6959, "sep": 9463, "\u6590": 3156, "\u86b1": 6022, "vincent": 10993, "##\u9753": 20529, "have": 9531, "\u266c": 495, "\u627f": 2824, "##\u7ff9": 18492, "\u71fb": 4252, "\u9e58": 7908, "ecu": 9526, "##\ufe56": 21062, "\u6da3": 3881, "##\u55bd": 14674, "##\u6ecc": 17054, "24": 8125, "##\u52d8": 14299, "##\u88a4": 19213, "\u5ad8": 2070, "\u6070": 2623, "dec": 9333, "##\u64fc": 16157, "##ome": 9893, "##mall": 13307, "##\u6545": 16182, "\u5220": 1160, "\u8fce": 6816, "\u318d": 666, "##\u9631": 20400, "##bu": 11381, "##\u60ee": 15735, "\u4ef0": 814, "\uff84": 8092, "##\u6487": 16107, "##\u6677": 16311, "##\u6b3e": 16678, "##\u707f": 17193, "##\u7e41": 18303, "##\u96bc": 20465, "\u8e51": 6692, "##\u9cb7": 20897, "e5": 10695, "\u5143": 1039, "##rea": 12551, "##\u5c7f": 15314, "\u4e3b": 712, "##\u8e59": 19751, "\u6df7": 3921, "##\u7cde": 18192, "##\u64de": 16145, "\u70f7": 4180, "##\u7167": 17269, "##\u02c7": 13371, "##\u892b": 19250, "##\u7587": 17596, "paypal": 8657, "\u97f5": 7510, "##\u7194": 17280, "##\u54df": 14575, "\u71fc": 4253, "##\u7c2a": 18140, "##\u8db8": 19699, "\u8d2e": 6580, "##tch": 9496, "##rss": 12281, "\u5de7": 2341, "149": 9491, "##\u7fb8": 18472, "##\u5feb": 15628, "\u5922": 1918, "\u51cc": 1119, "##<": 13334, "\u6043": 2603, "\u8ff4": 6836, "##\u938a": 20168, "\u94a1": 7166, "\u7f20": 5362, "##berg": 10039, "\u51dc": 1124, "##\u6d3c": 16891, "##reen": 10902, "g2": 12179, "\u60da": 2666, "\u5c41": 2230, "z": 168, "##itz": 12970, "##\u25ab": 13608, "##\u7172": 17273, "595": 13302, "##\u7368": 17417, "##\u7a77": 18013, "\u6afb": 3607, "##\u7eef": 18389, "##\u8328": 18811, "##vs": 11521, "piece": 11446, "##\u9526": 20296, "81": 8424, "##\u7afd": 18060, "\u7d6e": 5185, "##ka": 8693, "##\u56fa": 14800, "hu": 12199, "int": 10673, "##\u542f": 14480, "##\u5ebe": 15494, "\u6b32": 3617, "##\u6f09": 17082, "\u916a": 6991, "\u544e": 1442, "618": 9048, "##\u591f": 14973, "##\u8521": 18975, "\u8bbf": 6393, "map": 9633, "245": 10325, "##\uff10\uff10": 9885, "log": 10510, "\u540e": 1400, "##ppy": 12738, "680": 10255, "bag": 13214, "china": 8873, "mail": 8313, "##\u7838": 17847, "offer": 10038, "##\u8fce": 19873, "##said": 8944, "[unused32]": 32, "\u6c76": 3746, "\u5965": 1952, "##\u5ce6": 15344, "##\u5733": 14823, "\u223c": 389, "\u8588": 5949, "cool": 11338, "##a5": 12540, "\u5c4d": 2240, "ieee": 12272, "##\u6078": 15684, "##\u6de6": 16968, "##\u75b2": 17615, "\u8277": 5684, "##\u97cb": 20557, "\u6482": 3047, "##\u1163": 13471, "\u9bf0": 7810, "##\u4e2a": 13759, "\u8ddb": 6654, "\u72ac": 4305, "joe": 9516, "\u30b3\u30e1\u30f3\u30c8": 12167, "vivi": 9243, "##\u80eb": 18590, "##\u6dc6": 16955, "##\u76f2": 17740, "##zz": 9409, "##\u4eb3": 13837, "\u79a7": 4889, "##den": 10241, "\u9668": 7371, "##\u98fe": 20674, "\u978f": 7492, "\u5340": 1281, "##book": 8874, "##\u6ccc": 16846, "##af": 11472, "\u4ed4": 798, "\u6e3e": 3954, "##uc": 13139, "##\u5356": 14354, "##\u807d": 18538, "##\u94a5": 20227, "##\u3068\u3046": 12471, "##\u9e7f": 20979, "##\u89d1": 19291, "##gn": 12135, "\u5b64": 2109, "##\u65e6": 16247, "626": 12463, "##\u58c7": 14940, "##\u8bc8": 19457, "##\u9615": 20391, "##\u544e": 14499, "\u6fef": 4096, "\uff59": 8075, "\u8f45": 6750, "34": 8229, "vps": 10027, "\u4e1e": 693, "\u110f": 300, "##\u5019": 14009, "##\u5939": 14988, "##\u75c7": 17625, "##\u6afb": 16664, "\u7f69": 5388, "\u7422": 4423, "138": 9209, "##\u771f": 17753, "w": 165, "\u5321": 1270, "##\u7345": 17410, "1840": 12571, "##\u988d": 20629, "\u0442": 250, "db": 9767, "agent": 12948, "##\u77ee": 17822, "##\u7960": 17927, "\u5e5f": 2392, "##\u7280": 17354, "##\u03c3": 13396, "\u8b6c": 6357, "\u6b3a": 3619, "\u67ab": 3367, "\u6fb9": 4079, "##\u57a3": 14861, "##\u6ff1": 17154, "##\u8d35": 19643, "##\u6f5c": 17109, "##\u8fbc": 19864, "107": 8632, "\u54e1": 1519, "\u7b3a": 5020, "##\u7a3f": 18000, "\u6aaf": 3598, "\u8814": 6106, "\u6cfb": 3811, "gl": 9101, "inc": 8910, "\u8fc4": 6812, "\uff52": 8068, "gif": 9047, "##\u11af": 11596, "##\u5919": 14970, "##\u664c": 16290, "##\u75e8": 17642, "##\u8feb": 19890, "\u6237": 2787, "\u6f5b": 4051, "\uffe52899": 9425, "##\u76ef": 17738, "ling": 10061, "ubuntuforumwikilinuxpastechat": 12076, "\u5a20": 2027, "\u60b6": 2653, "\u6c13": 3697, "pr": 9470, "##ider": 11292, "##\u54b8": 14553, "##\u84a8": 18947, "##\u9885": 20622, "\u7edd": 5318, "##\u6c37": 16775, "##\u787c": 17861, "##\u6fd2": 17142, "##\u98d3": 20658, "##\u53c9": 14406, "##l": 8178, "##\u5e7a": 15460, "121": 9247, "add": 10253, "##\u2740": 13641, "##\u6175": 15779, "##\u71fb": 17309, "rmvb": 9365, "402": 12040, "\u8a6b": 6277, "city": 8869, "\u50ac": 998, "\u5bb6": 2157, "\u8cc1": 6532, "##hia": 12615, "\u4f57": 863, "\u82aa": 5703, "##\u596a": 15011, "##\u909b": 19983, "cosplay": 9803, "##\u90b1": 19994, "most": 11344, "##\u71b1": 17286, "\u7579": 4536, "\u8bf7": 6435, "##\u4e70": 13800, "\u55e3": 1632, "##\u3127": 13722, "##\u5d06": 15356, "##\u756a": 17585, "##\u4ec1": 13842, "##\u90a3": 19986, "\u731b": 4338, "##\u59be": 15046, "gallery": 12595, "\u504e": 973, "\u6e0b": 3930, "build": 11561, "##\u4f4d": 13912, "\u616e": 2719, "##\u5676": 14753, "##\u5f84": 15577, "##\u77bc": 17808, "\u5170": 1065, "\u4e9e": 765, "##lla": 9585, "\u592a": 1922, "##\u8be4": 19477, "##\uff72": 21110, "\u9baa": 7802, "\u75eb": 4587, "##dd": 9879, "##\u6a50": 16636, "##\u5443": 14494, "\u6558": 3135, "##\u6d0b": 16874, "\u306b\u3053": 13059, "##\u55fd": 14701, "##\u7686": 17696, "\u5f17": 2472, "\u6ada": 3603, "\u7c60": 5096, "##32": 8709, "##\u9f95": 21043, "##\u8138": 18624, "##\u674f": 16388, "##\u65a7": 16224, "\u5942": 1934, "\u53d1": 1355, "\u884c": 6121, "\u9821": 7528, "last": 10148, "tina": 12925, "##drive": 13115, "##\u9555": 20315, "##\u5690": 14762, "##\u725f": 17340, "##khz": 12112, "##\u7785": 17788, "sb": 12359, "\u6280": 2825, "\u7e01": 5233, "\u8c62": 6497, "xd": 8444, "##\u9223": 20105, "\u8ce0": 6543, "\u6a80": 3589, "\u615a": 2712, "\u987a": 7556, "\u7a9c": 4972, "##12": 8455, "images": 12804, "\u4e19": 688, "\u50a9": 997, "\u52db": 1244, "\u5f3e": 2489, "\u6e1b": 3938, "\u8e39": 6684, "##di": 9172, "327": 12094, "\u8b28": 6344, "##\u5175": 14127, "##\u68e7": 16537, "##\u8490": 18940, "\u7a0d": 4924, "bruce": 12897, "\u6d12": 3818, "##ft": 9002, "##\u93ae": 20177, "\u51a2": 1095, "\u300c": 519, "\u809b": 5497, "239": 10694, "##\u5614": 14710, "\u9f3e": 7966, "\u5d8b": 2325, "\u6de4": 3910, "\u94bf": 7186, "##\u60bb": 15712, "1934": 9823, "\u95b9": 7290, "\u8e48": 6688, "##sday": 12956, "edit": 11150, "tiger": 12088, "\u5c97": 2266, "##\u3081": 10063, "##\u8e8f": 19771, "weeks": 11973, "##\u043d": 13412, "\u83bd": 5818, "298": 10690, "##\u83c0": 18877, "\u6f8d": 4070, "##\u6ebc": 17047, "\u62a0": 2841, "v2": 9636, "evernote": 13138, "\u6372": 2947, "\u921e": 7047, "\u5f39": 2486, "\u9014": 6854, "\u970a": 7451, "dsp": 9934, "##\u5076": 14038, "203": 9954, "##\u62b5": 15907, "\u58be": 1879, "##\u7af6": 18057, "kuso": 10881, "\u94f2": 7211, "##\u5b6b": 15170, "\u9e21": 7883, "##\u867b": 19062, "\u7e7d": 5263, "##\u8fb1": 19859, "##\u9e2d": 20947, "##\u9edc": 21008, "\u93d8": 7125, "##\u2084": 13516, "##\u96c1": 20469, "##\u8fc2": 19868, "##\u8f15": 19795, "##\u5ed3": 15501, "\u6ee5": 4010, "##\u9867": 20604, "##\u64f0": 16151, "\u5feb": 2571, "\u7837": 4789, "\u567b": 1699, "\u5d17": 2305, "##\u6089": 15691, "##\u7f50": 18437, "##\u986b": 20605, "##\u9003": 19902, "##^": 13342, "##\u7578": 17592, "\u7a05": 4922, "##\u306a\u308a\u307e\u3059": 11293, "\u6491": 3053, "[unused78]": 78, "\u6fa4": 4075, "##\u66fc": 16351, "\u5be2": 2177, "\u79e7": 4913, "us": 8592, "##\u7db8": 18266, "##\u9977": 20715, "\u7573": 4532, "##xi": 10201, "##\u6085": 15690, "\u989d": 7583, "##\u5530": 14604, "\u706c": 4126, "\u7cb1": 5118, "\u7dbf": 5214, "165": 9316, "##\u7ede": 18376, "\u6bc1": 3673, "\u7117": 4187, "\u4e91": 756, "\u79cd": 4905, "\u3061\u3066\u3059\u304b": 9880, "\u69f3": 3551, "##\u51d1": 14179, "##\u5149": 14102, "michael": 8918, "##\u30e1": 10597, "##41": 9281, "##\u75b9": 17619, "##\u8dba": 19700, "\u561b": 1658, "##\u58f0": 14955, "\u301c": 530, "##u": 8207, "\u8bbd": 6391, "\u82d2": 5724, "ho": 10537, "\u81ec": 5633, "##\u7152": 17261, "##ories": 10939, "\u6522": 3111, "\u6dfa": 3923, "##\u67c4": 16433, "54": 8267, "##\u8c7a": 19559, "##\u9576": 20325, "##\u3042\u306a\u305f\u306b": 12774, "##\u6aa2": 16653, "\u5897": 1868, "\u9114": 6967, "\u8214": 5654, "##ble": 8862, "25000": 13251, "##\u6525": 16171, "##\u98b3": 20651, "##kw": 10446, "\u6345": 2927, "ver": 12513, "##\u5d69": 15376, "##\u99a8": 20735, "\u8d3c": 6592, "85": 8300, "ago": 8498, "\u94be": 7185, "\u4e5d": 736, "\u960e": 7330, "prefix": 11109, "##\u4ed7": 13858, "\u5036": 964, "5a": 10594, "##\u7763": 17776, "\u8d8b": 6633, "##\u9a9b": 20804, "\u5fac": 2543, "\u5362": 1306, "##\u522a": 14222, "##\u4e73": 13802, "##\u98c4": 20654, "plus": 8514, "##\u99d5": 20747, "##\u6362": 15997, "##\u7fa7": 18467, "360": 8286, "##\u6787": 16412, "##\u4e0a": 13734, "##\u6d9b": 16932, "\u5cf0": 2292, "5500": 11298, "##\u712f": 17251, "##\u7118": 17245, "\u7e6a": 5257, "\u8084": 5485, "m2": 9567, "##\u6cf3": 16864, "##\u6e44": 17013, "##\u30bf\u30fc": 10848, "\u8936": 6195, "##\u715e": 17265, "\u7d0a": 5150, "\u55ec": 1637, "\u50d5": 1010, "mkv": 11557, "\u8170": 5587, "\u6376": 2948, "\u998f": 7671, "100m": 13037, "##\u6ca6": 16827, "##\u651e": 16167, "##\u9a8f": 20799, "##\u8c0a": 19506, "344": 12698, "##\u6b66": 16693, "\u0443": 251, "excel": 8729, "##\u7b87": 18100, "##\u5e8f": 15472, "##\u55d1": 14679, "\u6050": 2607, "##si": 9182, "##\u55d4": 14682, "##\u586d": 14915, "cctv": 10099, "##\u817b": 18651, "\u9e1f": 7881, "\u0456": 260, "\u5230": 1168, "\u5c81": 2259, "##\u59f9": 15068, "\u64bf": 3073, "popular": 11880, "##\u662f": 16278, "\u96f0": 7436, "##\u98d9": 20661, "app": 8172, "\u7ee2": 5322, "\u6cbb": 3780, "\u2665yoyo\u2665": 8948, "read": 8649, "##\u9646": 20412, "##m2": 11916, "##\u5dfd": 15409, "yin": 13178, "##\u667a": 16312, "\u6d19": 3820, "##\u696d": 16568, "##\u73f2": 17467, "\u4f54": 861, "##\u714a": 17258, "##\u861a": 19040, "\u707d": 4134, "\u7d68": 5184, "light": 10310, "##\u6aaf": 16655, "##\u7a37": 17995, "##\u7e96": 18327, "##\u817f": 18654, "##\u888d": 19208, "\u829c": 5697, "\u8518": 5916, "notes": 13165, "\u5e72": 2397, "\u58d5": 1887, "##\u7f9a": 18460, "##\u996e": 20707, "\u67c4": 3376, "##\u5718": 14814, "##\u9cc3": 20899, "##\u82c7": 18776, "##\u91ce": 20086, "##\u8ddb": 19711, "\u5c5c": 2246, "##\u8fd0": 19874, "##\u8a89": 19346, "##\u9002": 19901, "##\u9655": 20419, "##\u8f9b": 19846, "##\u753a": 17570, "2\uff5e3": 10282, "\u9a9b": 7747, "9985": 12839, "##sch": 13107, "##\u9041": 19932, "##\u9acf": 20822, "\u5382": 1322, "\u7aae": 4981, "##ager": 13281, "##\u830e": 18806, "\u73bb": 4390, "\u8df3": 6663, "\u8f1f": 6741, "\u9e5c": 7909, "\u9e70": 7916, "##\u4fc3": 13971, "##\u5728": 14819, "##\u8baf": 19437, "##\u5a23": 15085, "##\u3068\u306e": 13066, "\u651c": 3108, "##rn": 9256, "\u7a14": 4926, "benz": 13065, "[unused75]": 75, "##\u7761": 17774, "\u875f": 6074, "##\u5ec2": 15496, "##\u70c2": 17219, "##ough": 11600, "##\u541d": 14467, "jpeg": 11985, "\u5ee0": 2449, "##gg": 9949, "15058": 12347, "\u4e5f": 738, "##\u6218": 15830, "##\u689d": 16511, "\u4f5e": 870, "\u6168": 2717, "k": 153, "\u82e1": 5733, "has": 11325, "##\u50e7": 14071, "\u575f": 1784, "##\u00f7": 13363, "\u4e25": 698, "##\u6fd5": 17143, "loading": 10878, "##\u7372": 17420, "##www": 9718, "##\u78c5": 17886, "malaysia": 10514, "ae": 11978, "##\u306e\u3066\u3059\u304b": 13221, "391": 13092, "\u6773": 3347, "##\u6e5f": 17019, "\u9bdb": 7808, "##ford": 10283, "dhl": 13305, "##\u621a": 15831, "\u8cb4": 6523, "\u6d8e": 3870, "##\u63f9": 16061, "\u72ec": 4324, "\u603b": 2600, "\u6676": 3253, "\u73ae": 4383, "crystal": 12070, "##\u5e02": 15413, "\u3011": 524, "##\u8ad2": 19372, "##ty": 8661, "##res": 9683, "##\u85aa": 19016, "##\u955c": 20319, "##vg": 12781, "##\u251c": 13584, "\u310d": 653, "news": 8501, "##board": 9472, "##\u5c08": 15258, "\u672b": 3314, "redis": 12599, "##\u6b3a": 16676, "\u116f": 316, "\u5999": 1975, "\u6020": 2591, "\u5533": 1549, "\u7cde": 5135, "carol": 9196, "##twitter": 12030, "##\u8d24": 19627, "\u7e4b": 5250, "##\u59aa": 15040, "##\u73b7": 17445, "##\u7dbe": 18270, "##\u9d61": 20924, "\u86a3": 6017, "##\u76db": 17727, "\u5cb1": 2276, "\u8a73": 6284, "\u739f": 4378, "##\u9eba": 20993, "\u8a33": 6259, "sui": 10997, "1953": 9268, "\\": 139, "\u6797": 3360, "##\u6939": 16554, "think": 12553, "\u697c": 3517, "##\u5b9b": 15195, "\u6440": 3027, "\u52e7": 1250, "##\u25ce": 11375, "##\u8f91": 19839, "\u8ce1": 6544, "\u5118": 1029, "pchome": 9780, "\u3013": 525, "\u03c8": 231, "##\u994c": 20695, "##\u5f08": 15520, "573032185": 9970, "##hp": 9990, "\u6d44": 3839, "\u4ee4": 808, "\u5490": 1472, "\u5e76": 2400, "\u30a2": 589, "via": 10003, "\u9500": 7218, "\u990c": 7622, "##tton": 11190, "\u5bff": 2195, "##\u5cb1": 15333, "\u961f": 7339, "##\u8b4f": 19408, "##\u2469": 13565, "##\u73e5": 17462, "\u304a": 540, "\u5494": 1474, "\u7642": 4615, "\u7cb5": 5121, "##os": 8470, "\u8dc3": 6645, "\u8b5c": 6355, "##\u75ea": 17643, "##\u9633": 20402, "##\u697c": 16574, "##vo": 10701, "##\uff89": 21115, "1907": 11111, "##fer": 10967, "##\u7b5d": 18091, "h5": 9354, "open": 8893, "##2017": 8367, "1968": 9045, "\u4f0f": 826, "##\u650f": 16160, "##\u8b4e": 19407, "##late": 11523, "\u9296": 7070, "193": 10185, "##shot": 11125, "brown": 10699, "##\u4f5c": 13925, "\u649e": 3058, "##ari": 11172, "\u4ed9": 803, "##nk": 9705, "##\u5484": 14523, "##\u5fd2": 15617, "\u94bc": 7184, "##\u752d": 17561, "\uff1e": 8042, "##\u79ae": 17948, "\u5a31": 2031, "\u4f5a": 866, "\u7118": 4188, "##new": 10654, "##\u7a9c": 18029, "gopro": 13176, "\u8b41": 6348, "\u6975": 3513, "\u90b3": 6938, "430": 10352, "\u5f45": 2490, "\u8910": 6186, "\u51cb": 1118, "\u80aa": 5505, "\u9830": 7532, "\u3057\u3066": 8648, "711": 12565, "girl": 9375, "##\u4eb5": 13838, "##\u66dc": 16340, "##\u6b23": 16672, "\u6804": 3401, "\u2083": 357, "##\u64f2": 16153, "##\u76d7": 17725, "##\u7cae": 18174, "\u76d7": 4668, "##\u6846": 16484, "2100": 10247, "##\u927b": 20121, "2g": 9422, "##icon": 12829, "##\u8b39": 19403, "##\u5177": 14129, "\u8acb": 6313, "\u8ca9": 6516, "##\u8c01": 19500, "\u81ed": 5634, "##\uff43": 10675, "\u57c2": 1811, "\u6816": 3411, "\u7792": 4737, "##03": 9042, "b2c": 10089, "##\u6435": 16080, "##\u8be2": 19475, "\u7b4d": 5026, "\u95fe": 7321, "##ors": 10903, "##\u6da3": 16938, "##\u88d8": 19226, "a7": 11226, "##\u7edd": 18375, "sa": 8945, "##\u8fc7": 19871, "visual": 10635, "\u55fd": 1644, "##\u982d": 20588, "oil": 13046, "test": 10060, "\u7d20": 5162, "##\u7391": 17432, "##\u4f20": 13894, "##\u763e": 17671, "\u4e60": 739, "##\u7545": 17574, "##010": 11906, "\u6b38": 3618, "\u688f": 3451, "##nm": 9359, "591": 9512, "##\u5a55": 15098, "##\u5e11": 15420, "\u7e5a": 5253, "\u2605": 480, "pk": 8465, "vornado": 13036, "joseph": 11151, "##\u6e90": 17032, "##\u6292": 15887, "2756": 9397, "##\u223d": 13541, "##\u7576": 17591, "\u5594": 1595, "\u6670": 3251, "##im": 9370, "##cal": 10384, "\u5fe0": 2566, "##right": 11264, "\u255e": 441, "##\u5920": 14974, "\u00bb": 188, "\u9600": 7322, "\u874c": 6069, "\u51dd": 1125, "\u6f01": 4022, "\u5256": 1189, "##\u9435": 20193, "##\u8fea": 19889, "\u87fe": 6103, "\u54cb": 1508, "\u3082\u3063\u3068": 10642, "##\u5289": 14265, "##\u9ac5": 20820, "\u30ef": 640, "##\u116e": 13479, "\u53e2": 1365, "157": 9928, "##\u5ea6": 15485, "##rcle": 12466, "\u591f": 1916, "##\u6770": 16402, "\u767d": 4635, "\u5417": 1408, "\u6de6": 3911, "\u8006": 5443, "\u9d72": 7870, "\u4ed1": 796, "\u5993": 1972, "cm": 9326, "\u665f": 3244, "##\u8c27": 19530, "magic": 10328, "##\u80a2": 18558, "\u76c5": 4657, "4g": 8340, "chrome": 8812, "##\u5b95": 15190, "##\u7a93": 18024, "\u58eb": 1894, "\u5992": 1971, "\u6df3": 3919, "##\u5942": 14991, "##ek": 9534, "##\u5091": 14046, "\u25b3": 465, "v1": 9074, "\u89c9": 6230, "##\u8111": 18611, "\u6b8b": 3655, "##cc": 8860, "\u5f99": 2535, "iso9001": 9727, "why": 11177, "\u523d": 1175, "\u6e21": 3941, "\u8490": 5883, "\u886b": 6136, "\u914a": 6978, "##lia": 10336, "advanced": 12370, "honey": 13299, "##\u4fce": 13974, "\u5bfc": 2193, "##\u9c0d": 20869, "[unused29]": 29, "\u2171": 364, "##key": 9938, "##\u6cae": 16832, "##\u7837": 17846, "##\u57d4": 14872, "\u98d3": 7601, "\u683e": 3421, "james": 8923, "18k": 10323, "p1": 11020, "\u5e06": 2359, "[unused62]": 62, "##text": 11816, "\u7dbb": 5211, "\u89a7": 6216, "zol": 12182, "fri": 8611, "##\u7dda": 18278, "##oz": 13102, "##dr": 11582, "\u5803": 1829, "##\u3044\u305f": 10526, "\u6236": 2786, "\u306f": 562, "\u9d98": 7871, "##ur": 8685, "##\u59e8": 15064, "##\u54d0": 14570, "##\u6ca2": 16824, "##\u9063": 19954, "2l": 13191, "##\u5065": 14035, "\ufe50": 8000, "##\u6f02": 17080, "##\u8c18": 19519, "sina": 9606, "style": 8969, "421": 12873, "##bon": 12229, "\u8baa": 6376, "##aka": 12417, "\u6a39": 3572, "\u94f6": 7213, "target": 11926, "##hua": 13074, "\u8cfa": 6553, "##\u6a8e": 16648, "\u5014": 949, "\u9c3b": 7816, "\u5bec": 2184, "\u70b3": 4154, "##hoo": 12638, "##\u5f04": 15519, "##\u54b1": 14550, "##\u2665": 9177, "\u8e4a": 6690, "\u6cf1": 3806, "\u8098": 5495, "kanshu": 13236, "\u7435": 4434, "##\u4ee5": 13866, "##\u7018": 17164, "##\u7b8f": 18103, "##\u8df9": 19723, "step5": 10338, "##\u8c1c": 19523, "\u6233": 2784, "\u6d4e": 3845, "##\u5582": 14642, "\u5b87": 2126, "##\u7027": 17170, "##\u8ad7": 19374, "\u5bd2": 2170, "##\u4fb7": 13968, "##\u8c11": 19513, "##ware": 10534, "##\u618b": 15785, "\u508d": 988, "\u64c1": 3075, "\u9690": 7391, "hip": 11070, "\u984e": 7541, "##\u61cb": 15805, "\u55ac": 1605, "##\u30c3": 13688, "ian": 13268, "##\u30d8": 13693, "##\u53d1": 14412, "##ena": 12000, "##\u6271": 15875, "\u65cf": 3184, "##\u6ce2": 16854, "\u6f38": 4041, "\u522a": 1165, "\u891a": 6190, "##\u777d": 17784, "##atus": 12283, "\u3008": 515, "\u30a7": 594, "\u3003": 512, "\u5578": 1580, "sc": 11515, "\u6177": 2724, "##lace": 12545, "\u4f3c": 849, "##\uff4c": 12035, "##\u3057\u3066\u3044\u307e\u3059": 12478, "\u6c50": 3729, "##\u556e": 14630, "##\u88d5": 19225, "\u7793": 4738, "\u73e9": 4406, "##ii": 8917, "##\u7e8f": 18324, "water": 11060, "\u870a": 6049, "kong": 8906, "##\u862d": 19041, "\u6e1d": 3939, "\u7426": 4425, "##\u5afb": 15135, "\u7fbd": 5417, "##\u7dbd": 18269, "##\u8afa": 19386, "##\u8e6c": 19757, "legalminer": 11377, "##\u8a60": 19328, "esp": 9212, "\u5c37": 2220, "\u25b2topnov": 10502, "##\u7247": 17332, "##\u835e": 18836, "\u4f96": 895, "\u94c3": 7190, "\u7115": 4185, "4399": 9922, "ddd": 13234, "##\u6845": 16483, "\uff40": 8050, "##\u8c0c": 19508, "\u7434": 4433, "\u62c2": 2855, "88": 8302, "##zo": 10121, "panasonic": 10752, "##my": 9009, "##\u8c2f": 19536, "##\u745c": 17504, "\u5b62": 2107, "##\ufe54": 21060, "\u307e\u305f": 9301, "\u5f5d": 2500, "##\u7b80": 18099, "##\u6cea": 16858, "##\u5442": 14493, "\u5fb7": 2548, "##len": 11407, "377": 13222, "\u2193": 371, "\u2248": 391, "\u30e1": 627, "\u73a5": 4380, "##\u5e9c": 15481, "\u5f03": 2461, "\u63c3": 2984, "\u81a8": 5610, "cpa": 11963, "##\u615a": 15769, "\u2466": 411, "\u8239": 5670, "42": 8239, "\u6760": 3339, "london": 9978, "##\u617e": 15782, "##\u8086": 18544, "##\u965b": 20420, "##\u043f": 13414, "##\u30a5": 13681, "\u7470": 4456, "\u9730": 7462, "dll": 9614, "##\u6215": 15828, "##\u8c24": 19527, "\u5634": 1673, "\u9e4a": 7903, "##\u5f81": 15576, "\u9e28": 7888, "##mobile": 13217, "nana": 12140, "##\u7ff0": 18489, "##gm": 11390, "##\u6d25": 16880, "##\u6115": 15750, "full": 9904, "##\u51f1": 14191, "##\u90b9": 19998, "\u76c6": 4658, "##\u9e42": 20954, "##\u0e19": 13444, "\u2488": 420, "\u7662": 4623, "\u88dc": 6171, "\uff0f": 8027, "##\u53e8": 14427, "##\u7c72": 18157, "\u3048": 539, "\uff01": 8013, "\u5098": 990, "\u535a": 1300, "##\u789b": 17873, "820": 10398, "\u77a0": 4741, "\u8b5a": 6354, "##\u4e28": 13758, "##\u5e03": 15414, "\u6abb": 3601, "\u539d": 1332, "\u94ee": 7209, "wear": 12679, "64": 8308, "##\u56df": 14784, "\u55e8": 1635, "\u73cd": 4397, "##\u6cbd": 16839, "##\u900f": 19908, "##\u6238": 15845, "##\u30e5": 13697, "dram": 10664, "##\u68b5": 16521, "##\u8e72": 19759, "##\u95ee": 20366, "##\u6bb2": 16722, "##\u3014": 13661, "\u2020": 339, "sound": 12516, "\u8bd8": 6409, "##\u6708": 16356, "lee": 9058, "\u2605\u2605\u2605\u2605\u2605": 10349, "##\u7a00": 17978, "##\u8dcc": 19706, "##\u9609": 20386, "##\u6cfe": 16871, "##\u7f9e": 18461, "click": 11682, "[unused7]": 7, "\u8822": 6111, "\u5c55": 2245, "103": 8615, "##ical": 9430, "##\u5ab3": 15117, "ivy": 12662, "##\u904f": 19940, "rate": 12597, "##\u8f38": 19802, "\u9e8b": 7924, "i3": 12224, "\u502b": 961, "\u258c\u2665": 9601, "137": 9444, "key": 9232, "\u8ba5": 6372, "##\u56a8": 14768, "##\u679c": 16419, "##\u94ec": 20264, "\u03bf": 222, "\u9999": 7676, "archives": 12318, "\u6519": 3107, "\u95d6": 7300, "scrum": 12527, "\u73c9": 4395, "##\u7f4c": 18436, "pan": 11641, "\u747e": 4458, "##\u9c9b": 20887, "\u7850": 4796, "sk": 9820, "##\u63c9": 16044, "\u8e34": 6682, "\u60b1": 2649, "anna": 9779, "\u62ab": 2847, "x86": 10652, "\u308f\u305b": 11878, "travel": 9819, "##ral": 10482, "##\u307e\u3057\u3087\u3046": 10759, "##rr": 12579, "\u9005": 6846, "\u845b": 5867, "##\u301d": 13666, "##\u671f": 16366, "##\ud83d\udd25": 21125, "\u53f0": 1378, "\u9077": 6907, "asia": 8339, "\u737c": 4369, "##\u52f8": 14310, "\u6e24": 3943, "\u7729": 4700, "\u4eac": 776, "##\u98a7": 20647, "328": 11580, "\u03c4": 227, "\u8eca": 6722, "##\u540e": 14457, "##\u5224": 14218, "\u8d54": 6608, "\u9c78": 7823, "gear": 10231, "##r3": 12549, "gd": 11729, "##\u5d3d": 15369, "##\u6f9c": 17130, "##\u723d": 17329, "##\u827a": 18743, "##\u9038": 19928, "lock": 9189, "\u5687": 1702, "##rap": 11893, "\u8317": 5751, "##\u8a8c": 19347, "fda": 10065, "\u8fc8": 6815, "\u5583": 1586, "nego": 11181, "##\u8361": 18839, "##\u96b6": 20462, "##\u57a9": 14863, "\u5ba5": 2148, "\u6627": 3218, "##\u7b14": 18068, "\u5716": 1756, "\u77bf": 4752, "a3": 10156, "##\u8077": 18537, "1986": 8629, "\u90ca": 6946, "##\u72d9": 17376, "##\u6ffa": 17155, "\u5e84": 2411, "##\u62c5": 15914, "\u8c8c": 6505, "\u7eaa": 5279, "##\u8d74": 19683, "##\u53fb": 14444, "##nap": 11546, "eps": 9629, "##\u5014": 14006, "##\u9f39": 21021, "##\u62fc": 15951, "223": 10265, "\u66b9": 3276, "\u6851": 3433, "##\u8972": 19261, "##\u8c62": 19554, "##\u0259": 13368, "\u9909": 7620, "management": 10751, "\u5869": 1855, "\u6e56": 3959, "\u5415": 1406, "\u6cfd": 3813, "\u71ac": 4228, "##\u3063\u3066": 9067, "##ons": 9961, "##\u51db": 14180, "##\u575b": 14838, "\u7ccd": 5129, "\u7d61": 5181, "\u55ce": 1621, "\u745e": 4448, "\u7a91": 4965, "##ora": 11455, "##\u61fe": 15816, "\u8178": 5591, "##\u75a1": 17607, "\u9727": 7460, "##\u91af": 20075, "\u5219": 1156, "\u6866": 3442, "\u6d41": 3837, "\u7d13": 5154, "##\u958b": 20331, "##\u534e": 14347, "##\u7ea4": 18332, "\u8c48": 6488, "edge": 9720, "##tto": 11403, "##\uff49": 12381, "##\u71c9": 17294, "\u7a92": 4966, "##\u6682": 16314, "##\u9014": 19911, "##\u61c7": 15801, "##\u51a0": 14151, "##\u5c04": 15255, "\ufe63": 8012, "##\u9542": 20308, "\u7f85": 5397, "##\u3066\u304d\u308b": 11415, "\u5229": 1164, "\u77a5": 4742, "\u9c7c": 7824, "with": 8663, "utc": 9361, "##qi": 11451, "qqmei": 12011, "\u5a07": 2019, "8cm": 12237, "##\u7a81": 18017, "\u61b2": 2740, "msg": 10180, "form": 12244, "\u609f": 2640, "\u56d7": 1722, "\u6d66": 3855, "##\u6b77": 16701, "\u8df9": 6666, "\u5201": 1144, "1998": 8368, "##\u9951": 20697, "##mu": 12924, "\u631d": 2909, "##\u5983": 15021, "##\u919a": 20066, "sr": 12109, "##ich": 11578, "##ell": 9602, "\u74ca": 4475, "##te": 8299, "##\u6869": 16502, "\u5f52": 2495, "\u69db": 3546, "##ea": 10073, "720p": 9591, "rn": 11998, "##\u3005": 13648, "##\u50c5": 14063, "##\u51fa": 14196, "##\u659f": 16220, "\u6b23": 3615, "##\u6753": 16391, "##\u8d37": 19644, "\u9e1a": 7879, "\u7cbe": 5125, "##tty": 11160, "iis": 11670, "\u531d": 1268, "##unch": 11294, "520": 9038, "\u8b04": 6334, "##\u4ef6": 13873, "##play": 10324, "sport": 10669, "\u6655": 3238, "hotels": 8749, "\u829d": 5698, "gomaji": 9576, "##\u8654": 19049, "##\u921e": 20104, "\u99f1": 7694, "##\u3063\u305f": 9190, "\u5ed6": 2445, "\u5171": 1066, "list": 9691, "con": 11485, "siri": 10309, "##\u5e72": 15454, "##\u95d8": 20358, "\u532f": 1274, "##\u60b1": 15706, "##\u8e63": 19753, "alex": 10179, "\u8058": 5470, "push": 11604, "##\u5c38": 15278, "##\u6691": 16321, "##\u7fcc": 18479, "\u98e8": 7610, "\u6b81": 3649, "019": 13146, "##\u8d23": 19626, "##\u94b5": 20238, "##\u72e9": 17380, "##\u7eba": 18350, "image": 9732, "##chi": 10525, "000": 8241, "##\u6c49": 16784, "##\u858f": 19008, "##\u62ed": 15944, "##94": 9723, "3s": 13247, "##\u9893": 20632, "\u732a": 4343, "\u9977": 7658, "\u90c5": 6945, "##\u9a30": 20759, "##\u9ede": 21010, "\u88fe": 6183, "##\u82a5": 18757, "##\u52c1": 14290, "##\u6fee": 17152, "\u6555": 3132, "electronic": 9297, "\u9ac5": 7763, "\u56f0": 1737, "talk": 9533, "##\u63b4": 16036, "\u6f8e": 4071, "##\u6e0b": 16987, "##\u6f54": 17106, "##\u98a4": 20645, "##\u6e2c": 17004, "\u9015": 6855, "ti": 9654, "\u804b": 5465, "##ph": 12465, "##\u631b": 15965, "##\u5ae1": 15129, "101": 8359, "##\u6230": 15839, "\u6578": 3149, "\u96de": 7430, "##\u5481": 14521, "##\u79cb": 17961, "##deo": 13000, "\u9b13": 7779, "268": 10729, "##\u51bc": 14166, "##a2": 12871, "\u3082\u3046": 12187, "288": 10332, "##\u6893": 16509, "##\u7f62": 18444, "##\u5f97": 15590, "##\u838e": 18858, "\u7c91": 5107, "\u7eff": 5344, "\u3063\u3066\u304f\u305f\u3055\u3044": 12900, "##\u95fe": 20378, "\u8f7b": 6768, "##\u2523": 13585, "\u903c": 6873, "##\u0631": 13432, "##\u8012": 18505, "\u5366": 1308, "##\u91ab": 20072, "\u3063\u3066\u3044\u307e\u3059": 12202, "\u5750": 1777, "##\u50cf": 14065, "\u703e": 4117, "iphone": 8210, "\u68e0": 3478, "1922": 10209, "##\u8cb8": 19583, "\u50a3": 994, "##\u5578": 14637, "\u7d2b": 5166, "\u8d4c": 6603, "##\u566a": 14749, "j": 152, "##\u5ea7": 15486, "shell": 10651, "day1": 11813, "263": 10864, "\u3082\u3061\u308d\u3093": 12868, "##.": 13330, "##\u8000": 18495, "\u5bab": 2151, "##\u8d42": 19653, "##\u9f85": 21035, "\u7165": 4210, "##\u6ec4": 17050, "\u8da3": 6637, "\u2122": 362, "\u6e2c": 3947, "03": 8140, "gc": 12366, "dac": 12913, "##\u2501": 13578, "\u5f01": 2459, "##\u635e": 15994, "\u659c": 3162, "##\u4ed3": 13854, "\u660e": 3209, "\u7a7a": 4958, "v": 164, "##ten": 11598, "##\u54fa": 14586, "##\u2661": 13627, "\u742c": 4428, "\u7eb5": 5288, "##\u649e": 16115, "##\u8be1": 19474, "##ence": 10504, "fish": 11676, "##\u6557": 16191, "\u5605": 1646, "48": 8214, "##sco": 11364, "##\u8173": 18646, "##\u5256": 14246, "##\u6392": 16018, "\u9f94": 7985, "##\u518d": 14143, "##\u7ac7": 18044, "\u5777": 1794, "##ug": 11838, "##\u58d8": 14945, "##\u96ce": 20478, "##\u5b89": 15185, "\u70c3": 4163, "\u80eb": 5533, "taylor": 11053, "##\u7ce0": 18194, "##\u92ea": 20140, "[unused25]": 25, "##lly": 9456, "ft": 12180, "\u502d": 963, "##\u563b": 14734, "##47": 9050, "##\u970a": 20508, "##\u732e": 17403, "237": 10775, "242": 11056, "##ded": 11363, "##\u677c": 16407, "\uff09": 8021, "##\u562f": 14726, "\u84d3": 5903, "\u03c6": 229, "\u822c": 5663, "\u5510": 1538, "\u7f77": 5394, "tripadvisor": 8194, "tue": 8483, "rfid": 10292, "##cia": 12382, "##\u58d3": 14943, "666": 11186, "##\uffe3": 21122, "##\u64c4": 16134, "\u6cbe": 3783, "\u9e20": 7882, "1991": 8555, "\u8a3b": 6263, "##van": 13045, "\u5c04": 2198, "\u3059\u308b\u3053\u3068\u304b\u3066\u304d\u307e\u3059": 11743, "##\u6cdb": 16850, "##\u9c3b": 20873, "[unused42]": 42, "\u72c8": 4314, "\u95d5": 7299, "##\u711a": 17247, "\u9716": 7457, "##\u593a": 14989, "##\u5a9b": 15113, "\u90e7": 6955, "\u95c6": 7293, "##ker": 9013, "##\u5f00": 15515, "\u901e": 6861, "\u9375": 7107, "##\u67e2": 16445, "##bot": 10119, "1918": 10106, "##stone": 12795, "##\u6f5f": 17111, "##\u8036": 18513, "##\u9075": 19962, "\u6270": 2817, "##\u8543": 18988, "\u8c24": 6470, "esc": 9307, "##\u5555": 14617, "73": 8454, "\u4f97": 896, "##\u304a": 8345, "forum": 11730, "##\u7f14": 18411, "##\u7cbf": 18183, "\u8778": 6080, "##\u3051\u3068": 10095, "8k": 12689, "\u2467": 412, "\u77b0": 4748, "\u8e64": 6697, "\u8148": 5571, "\u74ee": 4483, "tony": 10478, "##\u6eba": 17046, "a": 143, "##mah": 10394, "##\u4ed5": 13856, "13": 8124, "\u5955": 1945, "\u94b4": 7180, "##\u7435": 17491, "\u5f2d": 2481, "##\u6440": 16084, "##\u9e20": 20939, "##\u8403": 18899, "\u53e0": 1363, "##\u9695": 20450, "\u5446": 1438, "\u81fb": 5638, "##\u6c89": 16813, "1001": 11823, "\u8b0e": 6336, "\u6cad": 3774, "##\u987c": 20615, "\u552f": 1546, "##\u53d9": 14417, "##\u8d76": 19685, "\u5167": 1058, "##\u547b": 14517, "\u715e": 4208, "##\u610f": 15749, "##\u7169": 17271, "##\u6bcb": 16734, "\u30b5\u30a4\u30c8\u306f": 11063, "##\u5e81": 15466, "##\u8cc8": 19594, "##\u981c": 20584, "##\u5566": 14625, "\u94ba": 7182, "##tail": 11662, "\u6446": 3030, "##\u67de": 16443, "##erry": 11329, "##\u6602": 16260, "\u9732": 7463, "\uff99": 8096, "les": 10133, "##\u6247": 15851, "\u9249": 7057, "\u8c11": 6456, "\u6194": 2732, "\u8f29": 6742, "\uff4e": 8064, "gay": 12211, "##\u00a5": 13350, "##\u7d0d": 18209, "\u76f2": 4683, "\u6ebc": 3990, "##\u634b": 15987, "##\u95dc": 20359, "\u8fb1": 6802, "\u6c8f": 3758, "\u997c": 7660, "##\u00ae": 8646, "\u857e": 5945, "##\u5f67": 15562, "\u885d": 6128, "\u723a": 4270, "##\u73d1": 17457, "##\u665a": 16298, "\u8208": 5646, "##\u771e": 17752, "##\u96cc": 20476, "##\u7030": 17173, "\u5898": 1869, "##\u76f8": 17742, "\u5f04": 2462, "##\u5c4f": 15299, "##\u655b": 16194, "amy": 11201, "##\u71e5": 17303, "##night": 12734, "##\u645f": 16095, "\u8335": 5762, "188": 9460, "##\u5553": 14616, "\u7a3b": 4940, "\u6ee9": 4013, "\u5011": 947, "\u80b4": 5510, "##\u5f17": 15529, "\u8e2e": 6680, "##\u6b32": 16674, "y": 167, "##\u8c61": 19553, "\u535f": 1303, "\u61ac": 2739, "\u7e8f": 5267, "##\u866b": 19058, "\u97fb": 7512, "##\u7fb2": 18471, "##\u8861": 19187, "##\u79fd": 17977, "##\u256d": 13591, "\u66c4": 3277, "189": 10025, "\u5436": 1428, "##\u60bd": 15714, "\u9709": 7450, "##\u6548": 16183, "\u5228": 1163, "\u5455": 1445, "##ald": 13041, "##\uff59": 12166, "\u7476": 4457, "##\u86d4": 19088, "39": 8240, "\u22ef": 403, "\u6d78": 3863, "##\u3061\u306e": 12712, "##\u5de7": 15398, "##\u731d": 17397, "\u83c8": 5824, "##\u74a7": 17527, "##\u8171": 18645, "\u701f": 4112, "##\u221a": 13532, "##\u9b13": 20836, "##\u635f": 15995, "##\u6d2a": 16882, "##und": 9914, "##\u7f54": 18439, "\u840e": 5848, "516": 12635, "\u5115": 1028, "##\u8085": 18543, "\u90ac": 6933, "##op": 9133, "##tt": 9235, "\u542b": 1419, "\u03b1": 210, "\u6e09": 3928, "min": 9573, "##\u51a5": 14154, "\u6b7c": 3648, "##\u91c7": 20080, "\u5555": 1560, "airbnb": 9709, "##\u72b6": 17364, "##\uff78": 21111, "\u8469": 5871, "##\u62fd": 15952, "##cha": 11645, "\u9084": 6917, "##\u00a7": 13351, "\u5fe4": 2568, "##\u5e2b": 15431, "##baru": 13257, "\u77e5": 4761, "\u780c": 4774, "\u8bc6": 6399, "##\u4f64": 13932, "\u759d": 4548, "2010": 8166, "\u5d0e": 2301, "\u663e": 3227, "[unused64]": 64, "##\u6458": 16093, "##\u8e10": 19730, "##\u5bee": 15242, "##\u6e85": 17029, "##las": 10113, "##\u8ec0": 19778, "828": 13120, "##\u949c": 20218, "\u71e7": 4248, "\u6175": 2722, "##\u250a": 13581, "\u2716": 499, "\u8131": 5564, "##cation": 11424, "\u5d27": 2308, "##\u304b\u3063\u305f": 11299, "omega": 11938, "plan": 12248, "##\u64fe": 16158, "\u8e7a": 6705, "##la": 8461, "##\u00b0": 8724, "##\uff16": 9234, "##\u7199": 17281, "belle": 13058, "##\u83f8": 18896, "##\u9050": 19941, "##\u9ad6": 20826, "##\u30cd": 13691, "##\u9e4f": 20962, "ping": 11891, "centre": 10964, "\u7210": 4257, "##\u6dda": 16964, "022": 12522, "\u8d0f": 6560, "##\u5c4b": 15295, "\u6eff": 4021, "\u828e": 5694, "months": 10195, "\u77db": 4757, "##900": 10589, "##\u561b": 14715, "##\u792a": 17904, "##\u8c54": 19551, "\u25b2topdec": 10499, "##\u7eab": 18337, "##\u4fef": 13992, "\u9a8b": 7740, "\u7afa": 5002, "\u77aa": 4745, "\u7aa5": 4976, "##\u83f1": 18894, "##\u513f": 14093, "##\u7cfe": 18201, "\u86f3": 6039, "##ck": 8433, "\u7f2d": 5369, "\u5475": 1457, "prime": 10891, "\u8c27": 6473, "\u98d5": 7602, "##\u1d49": 13490, "\u9678": 7380, "##\u7dec": 18285, "\u5339": 1276, "##\u5742": 14828, "##\u8426": 18910, "##\u952e": 20298, "pk10": 9329, "welcome": 12759, "##\u951a": 20289, "\u91aa": 7014, "##\u7075": 17187, "##\u2503": 13579, "universal": 13229, "\u3057\u3066\u3044\u307e\u3059": 9257, "##\u4ec4": 13844, "\u6838": 3417, "##\u7116": 17243, "##\u9742": 20525, "##93": 9676, "##\u679a": 16418, "##\u8585": 19004, "##\u8af3": 19383, "##\u30ec\u30b9": 12696, "##pe": 8619, "##\u8ff8": 19895, "##\u8d27": 19630, "##\u5549": 14613, "\u9905": 7619, "\u4e13": 683, "high": 8757, "##\u3059\u304b": 11805, "##\u6d94": 16929, "##\u5662": 14745, "\u0e2d": 282, "##\u73c8": 17451, "\u6d74": 3861, "##\u5bf6": 15245, "\u7a7f": 4959, "\u74dc": 4478, "\u5ce4": 2285, "tb": 11456, "##\u86df": 19091, "##ene": 10600, "1m": 12103, "##\u5ad6": 15126, "boss": 8445, "\u8338": 5764, "##io": 8652, "##\u6a80": 16646, "\u2191": 369, "\u8543": 5931, "shadow": 12378, "##\u67fb": 16454, "##\u8e1f": 19733, "##\u8fd4": 19876, "##\u6860": 16494, "\u527d": 1203, "\u9e51": 7906, "##\u8884": 19204, "\u94e4": 7204, "\u6d4f": 3846, "##\u6d36": 16887, "\u6cf3": 3807, "187": 10058, "\u706f": 4128, "isp": 12036, "##\u8f87": 19833, "##bike": 13276, "##\u562d": 14724, "##\u59ca": 15049, "##one": 9021, "\u9162": 6987, "##\u5ac1": 15120, "winrar": 9476, "\u7891": 4811, "64gb": 11432, "use": 11927, "##\u60d8": 15722, "##\u0633": 13433, "##\u5b50": 15151, "##rtex": 12877, "[unused67]": 67, "\u8892": 6152, "##110": 12518, "\u5614": 1653, "##dan": 13184, "##con": 10281, "2k": 10739, "[unused8]": 8, "facebook": 8200, "\u817b": 5594, "##\u970d": 20509, "\u6df5": 3920, "##\u9f94": 21042, "##\u3053\u3068\u304b": 10274, "##\u83cc": 18883, "[unused27]": 27, "\u7ed8": 5313, "labels": 11562, "##\u3106": 13706, "1985": 8630, "##\u5527": 14600, "##\u701e": 17168, "##\u8a70": 19338, "##bre": 12655, "oops": 11260, "\u6d0b": 3817, "##\ud83d\ude0e": 21127, "##cel": 11786, "\u82dc": 5730, "##\u8217": 18713, "\u654e": 3129, "\u5572": 1576, "\u226b": 399, "than": 13158, "##\u5869": 14912, "\u5ba1": 2144, "\u756a": 4528, "##out": 9408, "\u4f84": 888, "##\u4fe0": 13984, "\u75bc": 4563, "295": 11332, "361": 11758, "##\u3042": 12146, "\u503a": 965, "##\u5f13": 15526, "##\u86d9": 19089, "##\u8c85": 19561, "##\u9178": 20057, "##\u94c2": 20246, "\u5323": 1271, "\u1172": 317, "\u527f": 1204, "\u6200": 2761, "\u9042": 6876, "##beth": 12101, "##\u4ef0": 13871, "##\u71c1": 17290, "##\u9b03": 20833, "\u5c08": 2201, "##ctionary": 13126, "\u96f7": 7440, "\u9f3b": 7965, "market": 9095, "##\u7a4e": 18006, "##\u66c7": 16336, "##\u52de": 14303, "##\u5e42": 15443, "##\u61e6": 15808, "\u64b0": 3066, "303": 11068, "\u2582": 449, "##\u6c99": 16820, "\u5b7a": 2120, "##\u0440": 13415, "##\u504f": 14031, "[unused43]": 43, "334": 12225, "##ina": 9314, "1983": 8715, "pose": 11474, "##\u7d75": 18246, "\u8521": 5918, "\u777d": 4727, "b5": 13137, "##\u6f66": 17114, "##\u5272": 14257, "##\u7f2a": 18425, "##\u9530": 20300, "\u27642017": 8558, "alexa": 11193, "\u7540": 4516, "\u7f04": 5346, "1942": 9480, "##57": 9647, "##\u5570": 14631, "##\u5583": 14643, "##\u755d": 17581, "##\u6c7e": 16807, "\u632b": 2919, "##\u77e9": 17819, "##\u5fb3": 15602, "\u6742": 3325, "v8": 10662, "\u53d8": 1359, "\u7fc5": 5420, "\u8425": 5852, "\u7e3d": 5244, "\u9f9c": 7990, "\u4ed5": 799, "\u944a": 7140, "##\u5e30": 15435, "##\u8d31": 19640, "\u25cb": 472, "##\u5659": 14742, "\u00b0": 180, "##\u8a95": 19350, "##\u8ddf": 19713, "photoshop": 9415, "##\u6019": 15645, "\u96c0": 7411, "##\u7aff": 18061, "\u8179": 5592, "\u5e8f": 2415, "##\u8c2c": 19534, "\u71ed": 4249, "##\uff0e": 21082, "##\u71d9": 17300, "##\u7919": 17901, "##\uff57": 21099, "##\u7ec4": 18356, "##\u9a45": 20762, "\u771f": 4696, "pokemon": 8934, "suite": 11420, "##\u8aee": 19381, "##\u61d2": 15807, "##\u83b7": 18872, "\u5b5d": 2105, "\u67fb": 3397, "142": 9621, "canada": 12947, "##ering": 12393, "##\u574f": 14833, "##\u53c8": 14405, "##\u5fdc": 15622, "\u59c9": 1991, "##\u7a9d": 18030, "\u7d71": 5186, "\u80ef": 5535, "##\u8737": 19120, "##\u946b": 20201, "pierre": 8744, "\u8c9d": 6509, "\u601c": 2589, "##\u70e8": 17231, "\u03b3": 212, "\u75ff": 4594, "##\u8e44": 19743, "\u97e6": 7504, "##\u903b": 19929, "\u5b7d": 2121, "##\u53a5": 14392, "aws": 12014, "##\u54d1": 14571, "##\u5c3a": 15280, "##\u888b": 19207, "chen": 9798, "50g": 12233, "##\u4fdd": 13981, "##ndi": 11874, "##\u6a3e": 16632, "##sia": 12557, "\u53fc": 1388, "##\u651c": 16165, "\u2468": 413, "##\u8ca8": 19572, "\u533b": 1278, "##\u6728": 16369, "\u72b9": 4310, "\u82d7": 5728, "##\u5b2a": 15143, "\u8d95": 6634, "##\u8c1a": 19521, "83": 8466, "\u8bb2": 6382, "##\u73c5": 17450, "\u2016": 337, "##\u30fc": 8568, "##code": 10802, "\u953b": 7248, "\u4e3e": 715, "\u9592": 7278, "comhd": 12587, "##\u5ad1": 15124, "##\u3053\u3068": 11127, "##sk": 8998, "\u82a6": 5701, "\u9d26": 7860, "##\u308d": 10460, "##\u652b": 16173, "##\u68f2": 16540, "\u7051": 4120, "52": 8247, "\u86d4": 6031, "##li": 8636, "\u538b": 1327, "\u9948": 7636, "##shop": 10940, "\u592e": 1925, "##\u50b7": 14060, "2019": 9160, "##\u5415": 14463, "##\u548b": 14525, "##\u7a0e": 17982, "kim": 10683, "\u87c0": 6091, "\u9493": 7157, "tour": 10181, "\u5565": 1567, "##\u3084\u308a": 11077, "\u53df": 1362, "##\u6346": 15985, "\u59be": 1989, "\u9a6d": 7717, "##\u8d16": 19619, "\u8283": 5689, "\u919c": 7011, "010": 9138, "##\u6746": 16384, "says": 9739, "##vis": 11233, "\u5925": 1919, "\u305d\u306e": 8782, "\u06e9": 275, "##\u889c": 19211, "\u5ee2": 2450, "##\ufe4d": 21055, "27": 8149, "\u7274": 4292, "\u914b": 6979, "\u9cd5": 7847, "##\u63a5": 16027, "\u7adf": 4994, "\u9b58": 7796, "they": 12013, "##\u8bd5": 19464, "##\u8e1e": 19732, "\u6ed1": 3998, "##\u9304": 20144, "\u71ca": 4238, "##\u4ed6": 13857, "\u7b5b": 5033, "\u8102": 5544, "##\u6d53": 16906, "\u2573": 448, "##\u5b8c": 15187, "\u90f7": 6961, "##\u30fc\u30b7\u3066\u3059": 12583, "\u75a5": 4553, "\u9285": 7067, "##\u5e38": 15439, "##\u3015": 13662, "##\u6b27": 16673, "longchamp": 9003, "##\u7c9f": 18169, "\u7f75": 5393, "##\u88c1": 19218, "##og": 10800, "\u96ce": 7421, "\u9cf3": 7854, "\u8ab0": 6306, "##\u75e2": 17638, "##\u6e1b": 16995, "##\u6035": 15656, "##\u991a": 20684, "##rris": 11818, "##\u7a05": 17979, "##tta": 11245, "\u653f": 3124, "\u5e11": 2363, "##\u7b06": 18063, "sylvia": 12500, "\u7656": 4619, "gp": 13228, "reuters": 11778, "sofascore": 11555, "##\u84c4": 18955, "server": 8896, "\u73ab": 4382, "\u7af9": 5001, "##\u971e": 20516, "\u798e": 4885, "\u4e21": 695, "\u667a": 3255, "tinker": 11254, "\u67d3": 3381, "\u5331": 1275, "des": 11081, "##\u82df": 18789, "##\u856a": 18997, "ve": 12810, "##\u80aa": 18562, "\u67d4": 3382, "\u6a62": 3584, "##\u865c": 19053, "step3": 9434, "##\u7c91": 18164, "##\u80f8": 18598, "##\u9a6d": 20774, "\u8bb7": 6386, "##\u6c24": 16764, "\u5eb6": 2433, "\u5cfd": 2296, "##\u90dd": 20007, "\u61ca": 2747, "\u6df1": 3918, "##\u988a": 20627, "##\u80bf": 18571, "##\u7eeb": 18386, "##\u9296": 20127, "\u8722": 6059, "##\u9cf6": 20913, "##98": 9215, "\u5ee3": 2451, "##\u7bb1": 18113, "urban": 13101, "\u8ee2": 6728, "tweet": 9874, "\u4e1f": 694, "\u5075": 980, "\u8cb0": 6521, "##lli": 13169, "structure": 13286, "\u3082\u307f\u3064\u304b\u3063\u3061\u3083\u3046\u304b\u3082": 12155, "\u8a54": 6267, "\u5426": 1415, "\u95e2": 7304, "\u5300": 1258, "\u306a\u3089": 12604, "\u8abc": 6309, "##2010": 9546, "354": 11848, "look": 9544, "##\u6055": 15666, "##\u8ee2": 19785, "##\u634e": 15990, "##\u81cd": 18681, "\u7eb0": 5284, "[CLS]": 101, "\u68b5": 3464, "\u8eaa": 6715, "##48": 8849, "##\u30df": 10688, "##\u30db": 12889, "##\u53e6": 14426, "\u65f6": 3198, "##\u5ff5": 15630, "\u5b59": 2101, "##\u3064": 9775, "##\u0e40": 13450, "##\u7538": 17569, "linkedin": 11369, "##\u86e4": 19092, "##dk": 12806, "##\u8a08": 19300, "win10": 8634, "##\u624d": 15855, "##\u7078": 17189, "##\u80c6": 18576, "192": 9319, "##\u8e34": 19739, "##\u5b87": 15183, "##\u555f": 14621, "\u717d": 4218, "##\u65a5": 16223, "loftpermalink": 10056, "2002": 8301, "la": 8515, "\uff5e\uff5e\uff5e": 9626, "\u57a9": 1806, "##\u61ac": 15796, "##\u56f4": 14798, "post": 8671, "##\u898b": 19267, "\u7554": 4521, "\u5361": 1305, "cool1": 12032, "##\u6372": 16004, "\u0628": 262, "##\u6d74": 16918, "##75": 9183, "\u8017": 5450, "##med": 13089, "##\u1167": 13474, "##\u6263": 15864, "##\u5cab": 15330, "##dn": 10853, "\u7235": 4265, "karl": 13263, "##\u56e0": 14785, "\u7f29": 5367, "urn": 11584, "##\u62c6": 15915, "##\u5cfd": 15353, "\u778b": 4733, "##\u978d": 20548, "##\u95ca": 20352, "\u308c": 581, "\u52ff": 1257, "\u7d3a": 5172, "booking": 9309, "jeff": 11147, "\uff11\uff15": 11213, "##\u6f7c": 17122, "sky": 10122, "##\u6edf": 17063, "\u788c": 4808, "\u9aee": 7773, "population": 13271, "\u5218": 1155, "\u8d43": 6597, "4800": 12488, "##\u8c1f": 19524, "\u7bc0": 5059, "##\u51dc": 14181, "\u8d25": 6571, "\u6349": 2929, "##\u60e6": 15728, "139": 9081, "##\u8514": 18971, "\u5e10": 2362, "em": 13152, "##\u7ad9": 18048, "\u5345": 1284, "\u86df": 6034, "content": 9432, "\u00d7": 190, "\u7d10": 5153, "\u9766": 7483, "q": 159, "\u568f": 1704, "\u5c98": 2267, "##\u6536": 16176, "\u6c88": 3755, "##\u85a6": 19013, "\u61ff": 2760, "\u7626": 4607, "##tom": 11686, "##\u9190": 20064, "\u626b": 2812, "##\u67ff": 16455, "##\u7766": 17778, "\u9091": 6923, "##\u6401": 16064, "##\u9489": 20209, "##\u8857": 19182, "##\ufe4f": 21056, "##\u6c7d": 16806, "\u7a0e": 4925, "##\u5b37": 15146, "second": 12462, "##\u2570": 13594, "##\u78c1": 17885, "\u72d0": 4316, "\u6e4a": 3957, "##\u4e09": 13733, "bear": 13265, "##\u7409": 17474, "##\u96a7": 20457, "##ator": 11762, "##uality": 13145, "##\u8f68": 19815, "\u2605\u2605": 10034, "dyson": 12730, "##\u58a8": 14931, "##\u6d38": 16888, "\u5121": 1031, "\u6493": 3055, "\u81bd": 5615, "##ann": 12464, "##\u67b7": 16431, "##ney": 10761, "##\u7c21": 18137, "##\u7fa9": 18469, "nice": 10192, "##\u8996": 19270, "##\u8d29": 19632, "\u4fa1": 900, "marc": 11511, "\u5567": 1569, "##\u8f6f": 19820, "##\u902e": 19923, "##\u820e": 18708, "august": 9217, "a1": 9454, "5\u2103": 9687, "\u2200": 376, "\u710a": 4184, "##\uff41": 10094, "\u4e48": 720, "367": 12375, "##\u30e7": 13699, "##\u5dc5": 15387, "##\u52a1": 14275, "\u29bf": 509, "##ley": 8930, "##\u8123": 18617, "##\u8caf": 19577, "##\u96de": 20487, "450": 8802, "\u7f70": 5391, "##\u6d52": 16905, "##\u6d88": 16924, "\u3044\u305f": 12312, "\u5b89": 2128, "##\u7bee": 18131, "##\u6043": 15660, "continue": 10859, "overdope": 9964, "c": 145, "\u5dfb": 2351, "##\u843c": 18918, "##\u6109": 15747, "smap": 13175, "##llow": 11200, "##\u71b9": 17288, "\u76c3": 4656, "##3d": 10696, "##\u66e0": 16342, "##\u8987": 19266, "\u55f6": 1642, "\u6d17": 3819, "\u919e": 7012, "\u8327": 5753, "##\u5dcd": 15388, "\u598d": 1970, "##\u9aa7": 20811, "##\u8288": 18747, "##\u865b": 19052, "660": 9936, "aug": 9663, "\u5473": 1456, "kg": 9515, "\u5e26": 2372, "##\u6a5f": 16639, "\u5976": 1959, "\u9169": 6990, "##\u6881": 16505, "\u6748": 3328, "\ufe4f": 7999, "15g": 11790, "\u54c2": 1502, "\u6a58": 3580, "rar": 12773, "\u5e83": 2410, "##\u52c7": 14292, "\u96be": 7410, "##rade": 10287, "##\u4ec6": 13846, "\u20ac": 359, "##\u6371": 16003, "##\u64c2": 16133, "\u5199": 1091, "405": 11982, "##\u9077": 19964, "##\u78e8": 17893, "about": 9053, "##\u0434": 13405, "##\u74e4": 17538, "##\u56db": 14781, "\u6065": 2615, "\u557e": 1583, "\u6c59": 3732, "\u562d": 1667, "\u9ce9": 7853, "amd": 8992, "##ju": 10904, "##\u7130": 17252, "##\uff97": 21117, "##\u9ae6": 20828, "cambridge": 11788, "\u922a": 7050, "##\u502a": 14017, "\u6fd8": 4087, "##\u5197": 14147, "##\u8c4a": 19547, "natural": 12627, "##\u8e2e": 19737, "\u7cc5": 5127, "01": 8146, "\u5a40": 2036, "##pin": 13248, "\u9a91": 7744, "\u66e0": 3285, "\u615f": 2713, "##\u62d6": 15927, "\u53e3": 1366, "\u30e5": 631, "access": 11098, "\u5beb": 2183, "\u65a7": 3167, "m": 155, "\u50d6": 1011, "\u79d8": 4908, "\u8c22": 6468, "##\u9e67": 20970, "##\u8f1b": 19796, "\u2461": 406, "\u5d14": 2303, "\u83e1": 5834, "##\u30b5\u30a4\u30c8": 11618, "##\u884c": 19178, "##\u5098": 14047, "\u7d4c": 5177, "\u5931": 1927, "pass": 9703, "##\u4f1d": 13891, "\u5c0d": 2205, "##\u5f15": 15528, "\u5af5": 2077, "\u5706": 1749, "205": 9860, "##ala": 11658, "\u0e07": 277, "##ets": 12198, "##ide": 9552, "\u606f": 2622, "##\u7887": 17863, "\u51b2": 1103, "\u6708": 3299, "1010": 13266, "\u9589": 7273, "\u9a71": 7721, "\u9eef": 7956, "##\u306b": 8294, "\u82be": 5716, "doi": 9962, "##\u6d5c": 16910, "##\u8f3b": 19803, "##\u84b2": 18948, "\u5fa8": 2540, "##\u4f43": 13908, "##\u8759": 19130, "\u5893": 1867, "\u75e8": 4585, "\u902e": 6866, "##\u5dd2": 15389, "##ake": 9981, "ebay": 8886, "##\u53f9": 14443, "##yo": 10222, "##\u30ce": 13692, "##\u7455": 17499, "kitty": 9431, "\u6e23": 3942, "\u5249": 1180, "##wd": 11681, "##\u6170": 15777, "##\u84ee": 18966, "##if": 9536, "\u7425": 4424, "444": 12876, "\u6e25": 3944, "1600": 8903, "##\u9756": 20530, "##\u6d69": 16913, "\u7cbf": 5126, "\u8e0a": 6670, "msi": 12560, "\u5c4c": 2239, "##or": 8372, "710": 12415, "##\u0629": 13429, "\u5b54": 2096, "\u5a92": 2054, "\u9785": 7489, "\u6867": 3443, "\u4ffe": 940, "\u5c18": 2212, "##\u30e5\u30fc": 12778, "##\u9e2a": 20946, "\u7719": 4694, "\u749f": 4469, "##\u5556": 14618, "320": 9144, "\u9508": 7224, "14k": 10612, "\u5408": 1394, "##\u7e8d": 18323, "##23": 8748, "##\u7f51": 18438, "##\u5e87": 15470, "##\u8d6b": 19679, "\u6e3a": 3953, "##rs": 8640, "##\u9ac2": 20819, "309": 11289, "##self": 13061, "##\u3057\u307e\u3059": 9294, "##\u80c4": 18575, "\u65fa": 3200, "cs": 9541, "iptv": 12844, "##\u53ad": 14396, "\u55d4": 1625, "\u521a": 1157, "\u7ee6": 5325, "##\u4fec": 13989, "=": 134, "3a": 10667, "6221": 12580, "\u6905": 3488, "spotify": 11170, "\u502a": 960, "##\u8f1f": 19798, "##\u5dfb": 15408, "\u6d35": 3829, "##\u4f69": 13934, "##\u8e52": 19750, "don": 9524, "##ood": 10919, "\u540a": 1396, "[unused41]": 41, "\u798d": 4884, "\u8a8c": 6290, "g20": 9789, "##men": 11839, "##can": 12632, "jump": 10331, "gmt": 12828, "##\u675c": 16393, "\u6e6e": 3965, "\u6583": 3151, "##\u6bbc": 16727, "##\u88c2": 19219, "\u5851": 1848, "##\u84b8": 18949, "##\u8e0a": 19727, "##\u8e0c": 19728, "##\u6280": 15882, "\u5fb5": 2547, "##\u59ff": 15070, "\u78ec": 4837, "\u4eca": 791, "76": 8399, "##\u6ede": 17062, "##\u30fc\u30e0": 9975, "\u59dc": 2002, "size": 9571, "\u8bd9": 6410, "##\u6237": 15844, "\u64b8": 3070, "\u7f55": 5383, "##lk": 10758, "adchoice": 10999, "##\u7709": 17748, "\u6436": 3024, "##\u6edd": 17061, "##\u8ecd": 19782, "\u8210": 5652, "url": 8654, "\u62e8": 2884, "##\u61a9": 15794, "\u749e": 4468, "##\u71ca": 17295, "\u8cb3": 6522, "##\u4e27": 13757, "\u5317": 1266, "\u92f8": 7085, "alphago": 10941, "##\u79ef": 17973, "\u300b": 518, "##\u2606": 8994, "##\u9132": 20032, "##\uff56": 12420, "\u5236": 1169, "##\u6635": 16281, "##\u8d9f": 19693, "##\u8707": 19104, "##\u8d85": 19688, "##\u975c": 20534, "\u51ef": 1132, "##\u7f94": 18459, "lost": 12593, "##tan": 10105, "##\u99b4": 20740, "##\u76fe": 17745, "68": 8360, "\u7897": 4813, "##\u7530": 17563, "\u9918": 7626, "\u7bab": 5054, "##\u7ec8": 18360, "russell": 11514, "\u67f4": 3395, "\u7a42": 4945, "dji": 12093, "1903": 11295, "\u9ab8": 7760, "\u9f9a": 7988, "##\u4ffa": 13996, "##\u6cf0": 16862, "\u99a5": 7677, "\u6328": 2917, "##\u5623": 14720, "\u6c1f": 3703, "##\u4ed9": 13860, "##\u5404": 14449, "\u68ee": 3481, "leave": 10619, "##pp": 9586, "##\u749c": 17524, "##\u9cf4": 20912, "##\u2198": 13526, "##\u50ed": 14072, "band": 11715, "##\u6f67": 17115, "\u763e": 4614, "cho": 9829, "low": 10611, "sns": 10884, "\u62c7": 2859, "##\u4e66": 13798, "\u7750": 4712, "\u8403": 5842, "\u9f4a": 7968, "\u6019": 2588, "\u641c": 3017, "\u4f26": 840, "\u8bf4": 6432, "\u94e0": 7200, "ppt": 8842, "[unused83]": 83, "3200": 10337, "\u9672": 7375, "\u4edd": 804, "##\u4f59": 13922, "##\u311a": 13715, "##\u56e2": 14787, "##\u61ff": 15817, "##\u66fe": 16352, "my": 8422, "\u9f62": 7973, "##\u6ee5": 17067, "##\u7489": 17520, "##\u7a6b": 18010, "##\u7a95": 18025, "##\u849e": 18944, "\u964b": 7358, "##\u6bc2": 16731, "##\u7f88": 18455, "##\u5bb5": 15213, "##\u8941": 19254, "##\u8a31": 19315, "\u5b6b": 2113, "##\u7aca": 18045, "\u00a3": 173, "##\u5fa0": 15595, "##\u8ba7": 19430, "\u8087": 5488, "\u4f36": 846, "\u7812": 4776, "\u306f\u3059\u3078\u3066": 11899, "##\u74e2": 17536, "\u860b": 5981, "\u7cd5": 5130, "\u304b\u3053\u3055\u3044\u307e\u3059": 12835, "##\u90b3": 19995, "##\u8365": 18842, "##\u81c6": 18678, "\u72d2": 4317, "##ha": 8778, "##\u8271": 18738, "\u68b0": 3462, "\u3226": 667, "##web": 9944, "\u7363": 4359, "##\u5d19": 15363, "\u4e58": 733, "3\uff5e4": 12907, "\u8077": 5480, "\u899a": 6214, "\u8328": 5754, "\u90a8": 6931, "7headlines": 11180, "##\u6b81": 16706, "\u9ec4": 7942, "##\u8cb6": 19581, "\u4f11": 828, "\u51c0": 1112, "##\u9274": 20120, "\u8c31": 6480, "##\u59d4": 15056, "##\u3002": 13646, "##\u63fd": 16062, "##fet": 12089, "##\u6562": 16197, "jayz": 11072, "##nn": 9502, "world": 8572, "\u5e95": 2419, "ryan": 11536, "6500": 11247, "\u768e": 4643, "\u8b58": 6352, "pinterest": 8379, "st": 8811, "\u7a69": 4952, "\u8a6e": 6280, "##\u9b31": 20843, "##\u57df": 14875, "264": 10212, "adsense": 11317, "\u9291": 7068, "##hip": 11489, "##\u5956": 15003, "006": 12526, "##\u75db": 17635, "\u9da9": 7872, "\u2463": 408, "##\u6fe4": 17149, "##\u7f13": 18410, "##ni": 8833, "\u86f0": 6038, "##\u732c": 17402, "\u4fc2": 913, "tags": 9214, "\u22ef\u22ef": 10169, "\u7b49": 5023, "gg": 10206, "\u5775": 1793, "\u7e43": 5247, "##\u631d": 15966, "316": 10743, "\u5341": 1282, "##lex": 11074, "126": 9022, "##\u70ae": 17209, "\u656c": 3143, "##on": 8224, "##\u68c0": 16523, "\u8b7d": 6363, "##\u2663": 13628, "##(": 13324, "\u8bc1": 6395, "##\u6b0a": 16666, "\u9bad": 7803, "##\u5965": 15009, "\u606c": 2620, "1700": 9641, "##\u984f": 20599, "##day": 8758, "\u586c": 1857, "\u5e55": 2391, "##\u6ae5": 16662, "\u7444": 4440, "\u5bcc": 2168, "49": 8249, "1943": 9540, "qe": 11534, "##\u5533": 14606, "\u9d3f": 7863, "\u66ae": 3272, "4": 125, "##\u30f3\u30af": 9262, "##\u7cf0": 18198, "##ans": 11159, "\u6e20": 3940, "\u80b1": 5508, "\u8a7c": 6286, "##\u6491": 16110, "##\u8239": 18727, "##\u9045": 19934, "\u6d87": 3866, "##\u6fef": 17153, "\u754f": 4519, "215": 10082, "\u85a6": 5956, "##rant": 10834, "##\u84d1": 18959, "##\u8e87": 19766, "\u72b8": 4309, "##jie": 12732, "##\u8e69": 19756, "##\u8fe6": 19887, "##\u700b": 17160, "##\u589f": 14930, "\u4f63": 874, "##\u532a": 14329, "##\u5b6c": 15171, "##\u8c36": 19540, "\u6cc4": 3786, "melody": 9087, "##vic": 11956, "##\u9821": 20585, "\u869d": 6016, "md": 11399, "\u59f9": 2011, "\u6ee8": 4012, "\u9264": 7062, "##\u5947": 14993, "\u65f7": 3199, "##nnis": 13004, "##\u6c2f": 16771, "\u5e16": 2365, "##\u6d19": 16877, "\u56da": 1723, "##ties": 11199, "set": 9738, "##\u51f9": 14195, "##\u2468": 13564, "##yy": 12642, "##\u728a": 17357, "##\u2191": 10839, "kb": 9843, "\uff5a": 8076, "##\u62f1": 15947, "\u85b0": 5962, "##\u6996": 16583, "\u759f": 4549, "##\u77ac": 17803, "\u116a": 312, "##\u116a": 13476, "##\u5199": 14148, "\u8f99": 6788, "##\u5e1b": 15425, "\u4efb": 818, "##\u6e4a": 17014, "sunny": 11182, "\u83b7": 5815, "##\u56f1": 14795, "\u6f15": 4029, "\u6398": 2963, "\u7f8e": 5401, "##\u7ed9": 18371, "\u5729": 1763, "\u543e": 1434, "\uff51": 8067, "##gma": 12880, "mbc": 10648, "##\u559f": 14658, "##\u720d": 17313, "\u8748": 6067, "##\u5ae6": 15131, "##o": 8167, "##\u94dc": 20255, "##\u985b": 20602, "\u6615": 3213, "##\u6a59": 16638, "##\u96db": 20485, "##\u4e42": 13774, "##\u960e": 20387, "\u66fe": 3295, "\u56b4": 1713, "\u93e1": 7128, "\u61f6": 2754, "##\u21d2": 13527, "\u8bda": 6411, "\u9ed1": 7946, "\u9f7f": 7976, "kanye": 8598, "##\u4e7e": 13803, "\u5206": 1146, "##\u753e": 17572, "\u6b5b": 3630, "\u7dec": 5228, "##\u87cb": 19151, "\u965b": 7363, "\u221f": 382, "##\u4fa7": 13961, "##\u8aeb": 19379, "##to": 8527, "\u5504": 1533, "\u7949": 4858, "\u6da7": 3884, "\u0448": 256, "space": 9634, "289": 11520, "##\u7269": 17346, "##\u67f3": 16451, "taipei": 9858, "\u519b": 1092, "\u5e3c": 2383, "##\u54a8": 14543, "##\u27a4": 13643, "##\u5892": 14923, "\u589c": 1871, "may": 8480, "\u90e2": 6952, "##\u2022": 13499, "\u55dd": 1629, "\u5627": 1665, "##\u7d0a": 18207, "\u9526": 7239, "bd": 8633, "##\u795a": 17921, "\u7c92": 5108, "##\u6c61": 16795, "\u988d": 7572, "##\u62c2": 15912, "##\u7957": 17920, "\u7e3e": 5245, "##\u7bab": 18111, "##\u901e": 19918, "##\u6cbf": 16841, "##\u8d5d": 19670, "1910": 10428, "\u5b5b": 2103, "##\u7dac": 18260, "##\u4f8f": 13950, "paris": 10708, "2345": 11209, "\u7b19": 5012, "##\u90b0": 19993, "176": 10004, "##\u7005": 17157, "\u6bad": 3663, "\u00d7email": 11175, "##\u56b7": 14771, "\u9c48": 7818, "\u795e": 4868, "##\u80a1": 18557, "##\u5bd3": 15228, "##cy": 8890, "##\u896a": 19258, "\u9d51": 7864, "##\u5c4e": 15298, "rakuten": 10249, "##\u632b": 15976, "##\u82ae": 18764, "education": 12727, "\u8574": 5943, "##\u5239": 14229, "\u6e96": 3976, "national": 9385, "##\u6af8": 16663, "##get": 10916, "##\u95f5": 20371, "\u6ce0": 3795, "\u70e9": 4175, "\u9c2d": 7814, "\u7ca5": 5114, "\u683d": 3420, "\u7d27": 5165, "##iginal": 13099, "##om": 8810, "##\u0433": 13404, "\u555c": 1562, "value": 10850, "\u4f3a": 848, "\u77da": 4756, "##\u5f45": 15547, "##\u7a3b": 17997, "##\u7ea2": 18330, "##\u9b22": 20839, "##\u4e9f": 13823, "207": 10194, "\u6c89": 3756, "\u853d": 5929, "##tee": 12729, "\u8d26": 6572, "\u814c": 5574, "\u00b10": 11349, "tokichoi": 13086, "##\u65a9": 16225, "##\u7aba": 18040, "##\u4fa0": 13956, "##\u564e": 14738, "##b": 8204, "0t": 10691, "##\u88f3": 19235, "##\u7f81": 18453, "##\u116d": 13478, "##\u7e2e": 18297, "\u8cdc": 6541, "276": 11173, "\u6063": 2613, "\u7687": 4640, "up": 8644, "\u2605\u2605\u2605\u2605": 11815, "##\u5f89": 15581, "##\u778e": 17792, "\u2082": 356, "\u311f": 660, "\u9695": 7393, "##\u9a91": 20801, "##bee": 11162, "##\uff5e1": 12427, "375": 11256, "\u52be": 1231, "\u03b5": 214, "usb": 8335, "##\u727a": 17352, "\u6765": 3341, "\u983b": 7536, "autocad": 12796, "##\u00a4": 13349, "##\u6485": 16106, "##\u2587": 13600, "##\u4f3d": 13907, "##\u3051\u3066": 12214, "##\u91b4": 20076, "##\u9072": 19960, "n3": 12905, "\u8dc6": 6647, "##\u647a": 16102, "##\u8d4f": 19662, "##\u94fa": 20272, "\u95f8": 7316, "##\u5bfc": 15250, "##\u68a8": 16516, "##\u7f8a": 18456, "\u25d5": 475, "hdmi": 9578, "creative": 12491, "##\u76e7": 17735, "\u6028": 2596, "##\u79a6": 17945, "delete": 12845, "company": 10007, "##14": 8717, "\u9045": 6877, "##\u614c": 15764, "##\u5cf6": 15351, "\u6f13": 4027, "\u75b8": 4561, "\u777e": 4728, "##\u3107": 13707, "##\u5a66": 15101, "lohas": 9757, "\u82bb": 5714, "\uff0d": 8025, "simon": 10944, "##\u81fb": 18695, "\u618a": 2727, "\u96cb": 7418, "\u730e": 4333, "\u5cd9": 2283, "cos": 10141, "\u00ab": 178, "##\u6d77": 16919, "\u526f": 1199, "\u80af": 5507, "del": 10843, "##\uff58": 13047, "##\u00b0c": 9953, "##\u304b\u306a": 13081, "\u02c8": 202, "##\u81b3": 18669, "##\u8e66": 19755, "ps4": 9986, "##\u7737": 17760, "##\u83ef": 18893, "##\u94f8": 20271, "\u956f": 7265, "\u535c": 1301, "##\u89ba": 19278, "##\u7661": 17679, "395": 12481, "##\u7751": 17770, "\u8e09": 6669, "##\u798e": 17942, "mod": 9650, "##\u4fa8": 13962, "\u4e3c": 713, "anti": 9204, "##\u77b0": 17805, "##\u817c": 18652, "spark": 11134, "\u671f": 3309, "##\u6cc4": 16843, "\u574d": 1774, "##\u6886": 16507, "\u63a0": 2966, "\u6bc5": 3675, "\u8e10": 6673, "##\u25b6": 13611, "##\u8517": 18972, "00z": 9337, "##\u8986": 19265, "##\u70fd": 17239, "\u6d25": 3823, "##\u6a23": 16621, "\u6ce3": 3798, "\u8292": 5695, "##\u5938": 14987, "dear": 11694, "cb": 12447, "##\u895f": 19256, "##\u5927": 14977, "##\u6538": 16177, "##\u66b8": 16332, "##\u767a": 17689, "\u8c03": 6444, "##\u7bd1": 18122, "blog": 8309, "##\u75be": 17622, "lifestyle": 12996, "##\u7aed": 18055, "##\u500f": 14003, "##\u4fa5": 13959, "##ot": 8783, "\u5cf6": 2294, "##\u305d": 10778, "\u7d76": 5190, "\u3057\u3044": 8596, "##\u713c": 17255, "\u67aa": 3366, "valley": 11994, "##cd": 10340, "224": 10629, "2004": 8258, "921": 12253, "##lts": 12977, "##\u5e83": 15467, "##\u53d8": 14416, "##\u5520": 14598, "\u5f8b": 2526, "kl": 13289, "##\u54a9": 14544, "##\u9ce9": 20910, "##\u4e1b": 13747, "##\u308a": 8506, "\u52df": 1247, "\u987e": 7560, "\u820a": 5648, "puma": 11803, "\u2193\u2193": 12558, "fun": 9575, "##\u6320": 15969, "##\u818f": 18658, "##\u55b2": 14666, "\u7a9f": 4974, "##nan": 12457, "\u7edf": 5320, "##ience": 13225, "##\u8faf": 19857, "\u5baa": 2150, "\u8273": 5683, "##\u8206": 18701, "##\u53d6": 14414, "##\u7a83": 18018, "172": 9801, "##\u7891": 17868, "##\u6b72": 16698, "##tax": 13155, "\u7594": 4543, "##\u701b": 17166, "\u987c": 7558, "\u90a3": 6929, "asp": 9596, "##\u5343": 14340, "##ins": 9556, "##\u8ab9": 19365, "##\u92b7": 20134, "##\u9df2": 20933, "\u6988": 3522, "##\u9171": 20053, "##2": 8144, "##\u671b": 16364, "##\u9f84": 21034, "\u954c": 7254, "##zer": 10631, "##\u5761": 14843, "##moon": 12682, "bus": 10411, "ltd": 9616, "##\u77ad": 17804, "##\u8f7f": 19828, "\u5109": 1025, "##\u8d45": 19656, "##ice": 8877, "##\u9bae": 20861, "\u6ae5": 3605, "##\u638c": 16015, "\u925a": 7060, "\u93ae": 7120, "##zen": 10549, "##ndy": 11373, "\u822a": 5661, "##\u659b": 16218, "\u9650": 7361, "768": 12472, "\u8a15": 6247, "\u9082": 6915, "##bay": 13200, "##\u6daf": 16946, "##\u9f8d": 21040, "\u7f3d": 5376, "1800": 8961, "##\u9650": 20418, "##\u6654": 16294, "bing": 12960, "##wo": 10911, "\u5e7f": 2408, "##\u60c7": 15717, "\u6af8": 3606, "##\u6ce0": 16852, "##\u84b9": 18950, "\u92c1": 7079, "baidu": 11118, "##\u8e6d": 19758, "##\u90ca": 20003, "##\u5471": 14511, "##\u9109": 20022, "\u66a7": 3269, "##\u660c": 16265, "\u4ede": 805, "##\u5b59": 15158, "12345": 9700, "\u53c2": 1346, "\u8d29": 6575, "\u5909": 1907, "\u97d3": 7502, "\uff3d": 8047, "##bank": 10980, "##\u963b": 20406, "\u8aa0": 6296, "\u7b08": 5007, "##bell": 13110, "\u9556": 7259, "##hz": 8686, "##\u5d2d": 15367, "##\u5398": 14387, "\u5ce8": 2288, "##\u5c82": 15317, "##\u8332": 18817, "##\u695e": 16563, "\u4ec4": 787, "\u82f1": 5739, "\u24d4": 425, "##\u536b": 14367, "tai": 13242, "\uff5e": 8080, "##\u585e": 14910, "##\u3057\u3044": 10899, "##\u8bf2": 19488, "##\u7696": 17703, "##\u5e84": 15468, "\u565c": 1686, "##\u8d5b": 19669, "##\u8da8": 19695, "\u6da4": 3882, "##\u7dd2": 18276, "##ta": 8383, "##\u5b5b": 15160, "\u7eb3": 5287, "##\u22c8": 13553, "##\u75b3": 17616, "##\u2083": 13515, "##\u680e": 16464, "\u83ca": 5825, "##\u308a\u306e": 12407, "##\u7145": 17256, "mount": 12881, "\u5e1c": 2369, "li": 9341, "t": 162, "\u61be": 2742, "##\u7e08": 18292, "##\u4e9a": 13819, "\u69c3": 3538, "states": 11603, "##\u6a0a": 16614, "philips": 10749, "\u93de": 7126, "sf": 11176, "me": 8450, "##\u6d85": 16922, "##\u95eb": 20364, "\u6f7c": 4065, "##chat": 10720, "##\u5200": 14200, "##2000": 9842, "\u0645": 270, "pixnetfacebookyahoo": 12047, "##\u5edf": 15505, "##\u8747": 19123, "##\u8f93": 19840, "##\u8ce4": 19604, "\u592b": 1923, "play": 8942, "\u57f5": 1821, "\u8389": 5799, "\u4e08": 675, "\u6c39": 3720, "##\u5fbc": 15607, "##\u5c40": 15286, "\u9f8c": 7982, "\u7d02": 5146, "wind": 12302, "##orm": 10530, "z2": 12568, "##\u7a79": 18014, "\u6f09": 4025, "##\u7e43": 18304, "##\u904e": 19939, "##\u7c3e": 18145, "\u4f48": 854, "\u7b20": 5015, "\u014b": 196, "\u9a30": 7702, "\u94b1": 7178, "##\u71e7": 17305, "\u5c1d": 2214, "##\u675e": 16394, "\u6bce": 3679, "\u73ea": 4407, "\u8b20": 6343, "##71": 9097, "##~": 13347, "134": 9146, "1984": 8655, "\u30bf": 608, "\u934d": 7103, "##\u4fc4": 13972, "\u7578": 4535, "##\u5af2": 15133, "\u8ce6": 6548, "##tings": 13288, "\u9897": 7578, "##\u609a": 15696, "##\u750c": 17546, "##\u75ae": 17612, "\u5009": 942, "##\u8d81": 19687, "##\u99db": 20748, "pe": 9205, "##\u9e44": 20956, "##\u6607": 16262, "##\u8e48": 19745, "\u7b50": 5028, "##\u8535": 18981, "\u6f22": 4031, "\u932f": 7097, "##\u64bc": 16129, "\u5be1": 2176, "\u82de": 5731, "##\u5106": 14081, "##\u6f14": 17085, "\u5cb8": 2279, "##\u8f6d": 19818, "\u8715": 6053, "8": 129, "##stry": 11001, "##\u2261": 13544, "##30": 8471, "\u6fc0": 4080, "5c": 13025, "\u556a": 1570, "\u8a0a": 6244, "step": 9451, "\u25b2topfeb": 10663, "fintech": 12234, "##tions": 9652, "\u69f2": 3550, "\u985e": 7546, "\u6dfb": 3924, "\u21d2": 375, "\u671b": 3307, "\u90ce": 6947, "##\u5d27": 15365, "##\u6405": 16066, "\u6c27": 3709, "##\u8bec": 19483, "\u5264": 1194, "\u8bdf": 6415, "\ufe31": 7993, "##rail": 12783, "##\u7be1": 18127, "iii": 9207, "##340": 12149, "\u4e59": 734, "##\u595a": 15006, "##\u96cd": 20477, "##\u86b1": 19079, "\u75d2": 4573, "\u9002": 6844, "explorer": 10630, "##\u8ca1": 19569, "##\u4ea4": 13826, "\u8fb0": 6801, "\u573e": 1769, "##\u8b3e": 19404, "\u8e4b": 6691, "##\u5922": 14975, "\u63ea": 2998, "233": 9959, "##\u692a": 16551, "##\u6fd1": 17141, "##\u527d": 14260, "##\u6bce": 16736, "##\u8247": 18730, "##\u99dd": 20749, "\u8bf2": 6431, "##\u9f2c": 21020, "\u8594": 5953, "fandom": 9598, "\u64b7": 3069, "##\u6f15": 17086, "##cord": 12291, "\u5919": 1913, "\u59b2": 1985, "\u7f19": 5358, "\u86ed": 6036, "\u9397": 7116, "##59": 9632, "just": 10125, "##\u5fae": 15601, "##\u8a13": 19303, "##\u8c93": 19563, "899": 12612, "##\u3061\u3083\u3093": 12875, "\u7ea2": 5273, "\u304f\u305f\u3055\u3044": 9052, "\u9c8d": 7828, "museum": 10553, "486": 12459, "##\u520e": 14208, "\u98fe": 7617, "\u5b56": 2098, "##ade": 10233, "not": 9059, "\u811b": 5559, "##\u5ca9": 15329, "##\u616e": 15776, "##\u88fe": 19240, "\u5c0a": 2203, "\u72f9": 4330, "\u4e0a": 677, "\u6bc0": 3672, "\u84fc": 5910, "##ji": 9343, "##\u79b1": 17949, "##\u8d3b": 19648, "\u8c4a": 6490, "tesla": 11564, "\u7a98": 4971, "\u9976": 7657, "\u59bb": 1988, "##uck": 11971, "\u7ea7": 5277, "\u5f8a": 2525, "##\u89ce": 19289, "\u5484": 1466, "##\u4f17": 13887, "##\u6697": 16323, "\u25aa": 461, "##\u7e6d": 18316, "##\u597d": 15019, "\u4fa8": 905, "##\u8106": 18603, "##\u90fd": 20020, "\u308f": 583, "##\u5f92": 15587, "##\u9023": 19922, "##\u5168": 14116, "##works": 10054, "\u4ecb": 792, "\u7aed": 4998, "\u8638": 5985, "##2014": 8951, "\u957f": 7270, "\u5875": 1859, "\u8231": 5665, "adi": 11655, "##\u6eec": 17071, "cia": 11769, "\u98ea": 7612, "##\u8fb2": 19860, "iphone7": 9440, "\u94a5": 7170, "css3": 10760, "##\u5b70": 15172, "##\u6c14": 16755, "##\u75eb": 17644, "##\u7ed2": 18366, "\u2560": 442, "1939": 9459, "##cn": 9435, "##\u6714": 16361, "##\u9a19": 20757, "\u6210": 2768, "##ume": 11465, "yoga": 13296, "\u932e": 7096, "##\u8a7c": 19343, "\u8944": 6198, "##cher": 10824, "\u561a": 1657, "##\u594f": 14998, "##\u95fa": 20375, "##\u7357": 17414, "\u77c7": 4753, "##\u69cc": 16597, "\u74b0": 4472, "\u846c": 5873, "##\u5cb3": 15334, "air": 8523, "\u5f00": 2458, "\u8c1a": 6464, "\u6c21": 3704, "\u568e": 1703, "\u6bd9": 3687, "##\uff7c": 21112, "\u78e1": 4835, "\u5b34": 2088, "##\u684e": 16488, "##lone": 12519, "\u56f2": 1739, "##rd": 8642, "##\u84df": 18963, "\u4fa5": 902, "\u9765": 7482, "\u9a87": 7737, "##\u6761": 16397, "##\u827e": 18744, "##\u96f6": 20496, "##x2": 12505, "##\u5f64": 15559, "##\u6291": 15886, "##lt": 9238, "080": 12365, "##\u9f90": 21041, "\u5132": 1033, "\u7c4d": 5093, "are": 8995, "##\u523d": 14232, "##\u2463": 13559, "##\u7430": 17487, "\u5431": 1424, "##\u6cf8": 16867, "##\u9997": 20732, "\u94f5": 7212, "##\u6a47": 16634, "##\u8cde": 19599, "##\u6127": 15757, "\u7028": 4114, "pet": 10495, "##\u96a0": 20455, "##\u5546": 14612, "[unused80]": 80, "\u5a6a": 2046, "\uff53": 8069, "##\u5e01": 15412, "##\u9053": 19944, "\u5fb3": 2545, "\u7284": 4299, "390": 10370, "##\u56e3": 14788, "\u78a7": 4819, "##\u7470": 17513, "##\u9839": 20592, "##\u602f": 15655, "##\u6abb": 16658, "\u8655": 5993, "##\u5c01": 15253, "\u6309": 2902, "##\u8154": 18636, "##\u8bf7": 19492, "##\u550f": 14594, "\u5316": 1265, "##\u777f": 17786, "\u9a78": 7726, "##\u8258": 18732, "bill": 10681, "##\u5984": 15022, "##\u541e": 14468, "##\u3124": 13720, "\u9981": 7664, "##\u5600": 14702, "359": 12027, "426": 12408, "\u3112": 656, "\u9ae6": 7771, "##\u54cd": 14567, "\u8713": 6052, "\u91cf": 7030, "##\u575e": 14840, "\u9965": 7645, "##\u8150": 18633, "journal": 10321, "\u7aca": 4988, "c5": 12648, "403": 12058, "\u8d41": 6595, "\u306a\u3068": 9744, "\u654c": 3127, "\u75e4": 4583, "##\u7aae": 18038, "##\u81c2": 18676, "\u86aa": 6020, "##\u5fb5": 15604, "##\u0443": 13418, "1951": 9387, "##ola": 12653, "##\u6a1f": 16619, "##\u9903": 20675, "\u7cd7": 5132, "\u52a9": 1221, "\u5104": 1023, "\u30a4\u30ab\u305b\u308b\u30c6\u30f3\u30de": 10885, "##\u8a87": 19345, "##\u6f97": 17129, "\u62e3": 2880, "##\u5df2": 15404, "\u8a70": 6281, "##\u6ef2": 17073, "\u8fab": 6797, "##\u5f6c": 15566, "##\u8748": 19124, "\u8191": 5602, "##box": 8927, "\u5144": 1040, "dns": 9580, "\u533e": 1279, "\u9ed4": 7948, "1928": 9672, "##\u6ed3": 17056, "##\u804a": 18521, "##\u8c6b": 19556, "\u630e": 2903, "\u8718": 6055, "##nic": 12467, "foundation": 12099, "##\u4ff1": 13993, "125": 8752, "##\u5006": 13998, "##\u5f48": 15549, "##\u852d": 18980, "daily": 10210, "\u1d4f": 333, "\u4ecf": 795, "\u812b": 5562, "\u83a0": 5807, "##\u4ed8": 13859, "##\u8ba5": 19429, "\u606b": 2619, "\u5708": 1750, "408": 12189, "dell": 11516, "cr": 10951, "4m": 9695, "##\u7d0b": 18208, "\u680e": 3407, "\u8105": 5545, "##\u5411": 14460, "\u5c90": 2262, "##\u75c9": 17627, "##\u9054": 19945, "\u11bb": 327, "##\u1173": 13482, "\u8d1f": 6566, "\u7344": 4352, "##11": 8452, "\u8b19": 6340, "##ument": 11867, "##\u8e0f": 19729, "financial": 12200, "##\u8f8a": 19836, "##\u521d": 14216, "fpga": 9724, "##\u520d": 14207, "##\u6d8e": 16927, "##\u7b56": 18089, "##\u996f": 20708, "##\u6a58": 16637, "##\u752f": 17562, "##note": 13062, "\u83a2": 5808, "737": 11933, "##\u6f6e": 17117, "##\u765c": 17677, "\u7665": 4625, "\u6308": 2901, "\u994b": 7637, "440": 10845, "##\u809b": 18554, "##\u8235": 18723, "##\u76f4": 17741, "\u96e2": 7431, "##tein": 12508, "##\u6c28": 16767, "\u81c3": 5620, "mountain": 12482, "##'": 13323, "\u6212": 2770, "##\u51ff": 14199, "##\u7cc5": 18184, "\u9326": 7093, "##\u2200": 13528, "\u54c6": 1504, "\u5b9e": 2141, "\u5c27": 2216, "xxx": 8790, "\u6e9d": 3978, "##\u5630": 14727, "##\u6817": 16469, "uniqlo": 11905, "1929": 9792, "##\u65ac": 16227, "##\u69db": 16603, "\u6e43": 3955, "##nder": 10493, "##\u515a": 14111, "\u5f69": 2506, "\u9525": 7238, "##\u6d8c": 16926, "##\u7e1b": 18293, "society": 11573, "\u7f42": 5377, "oppo": 8806, "##\u311f": 13718, "##\u715c": 17264, "##\u8133": 18623, "##\u8236": 18724, "##\u9984": 20722, "\u5291": 1212, "\u5f48": 2492, "##fo": 10261, "##\u54ed": 14583, "##\u5f29": 15537, "\u7bf1": 5075, "\u6ef2": 4016, "\u0e40": 284, "\uff9d": 8097, "\u54ce": 1511, "\u823a": 5671, "##n1": 11310, "\u6052": 2608, "alan": 11648, "\u5c31": 2218, "\u88c5": 6163, "\u5d34": 2311, "801": 12566, "\u911e": 6969, "013": 13034, "##\u51a2": 14152, "##\u6717": 16363, "##\u6a2f": 16625, "##\u7156": 17262, "##\u8902": 19241, "##\u308c\u306f": 9170, "unit": 12816, "##\u54b2": 14551, "##lic": 11809, "org": 8448, "##\u794e": 17916, "\u677e": 3351, "\u96b6": 7405, "##\u7eff": 18401, "\u8303": 5745, "##\uff42": 12641, "\u5fa1": 2539, "787": 13029, "##\u4fda": 13980, "##\u90b5": 19996, "##\u9664": 20427, "##\u503c": 14023, "##\u5c0d": 15262, "\u8c10": 6455, "##\u54fd": 14588, "\u5355": 1296, "##\u71f4": 17308, "\u761f": 4602, "##\u7825": 17840, "##\u6001": 15635, "\u797a": 4878, "\u67d2": 3380, "15": 8115, "\u63b8": 2981, "##\u2190": 13018, "\u5fbd": 2551, "##\u6b49": 16681, "\u75d9": 4577, "##\u726f": 17347, "##\u7ed4": 18368, "##\u5a36": 15091, "##\u110f": 13466, "\u1106": 293, "##\u5288": 14264, "\u5174": 1069, "\u9889": 7569, "\u7a84": 4962, "\u8b49": 6349, "\u7c3d": 5087, "\u9cd7": 7849, "##sen": 10387, "##sp": 10367, "##\u4fea": 13988, "##\u64b5": 16125, "##\u8b1d": 19399, "##\u9837": 20590, "\u9d5d": 7866, "usa": 11583, "\u8e69": 6699, "\u8b4f": 6351, "end": 9931, "##\u5a03": 15072, "\u7db1": 5205, "##\u57b5": 14867, "\u3066\u304a": 10393, "##\u6619": 16271, "##\u6da9": 16943, "##\u75c2": 17623, "\u3048\u3066": 13095, "##\u6bc1": 16730, "\u731d": 4340, "\u9644": 7353, "##\u8b10": 19394, "##\u6ffe": 17156, "##\u8d25": 19628, "179": 9910, "##\u68cb": 16527, "control": 8809, "##ps": 8525, "##gb": 9673, "\u652f": 3118, "##\u8038": 18515, "da": 10005, "\u6d6e": 3859, "##\u8a1d": 19309, "##\u984e": 20598, "029": 12801, "\u9a79": 7727, "##\u62e2": 15936, "sidebar": 11212, "##\u9549": 20310, "##\u5a9e": 15114, "##test": 11574, "\u629a": 2836, "\u5f6c": 2509, "\u7261": 4285, "50mm": 11774, "\u8e8f": 6714, "candy": 10653, "##\u03bb": 13389, "\u62e6": 2882, "\u83bf": 5819, "\u7267": 4288, "service": 9176, "\u9b22": 7782, "##\u79bf": 17955, "##\u5851": 14905, "\u8aee": 6324, "buy": 11166, "##\u547d": 14519, "##\u5bdb": 15229, "\uff12": 8030, "\u8ffa": 6840, "##\u3057\u305f": 9442, "\u509a": 992, "##ould": 11734, "##\u770c": 17750, "##\u8db3": 19696, "##\u90bb": 20000, "\u9109": 6965, "\u8c25": 6471, "\u962e": 7342, "##\u6575": 16204, "##\u82b1": 18766, "##\u9541": 20307, "##\u6301": 15955, "\u7738": 4704, "spa": 8509, "cloud": 10279, "\u2170": 363, "283": 11152, "##\u4ef7": 13874, "##\u83c8": 18881, "##\u695d": 16562, "##\u980c": 20577, "63": 8381, "\u5bb4": 2155, "##\u98a0": 20642, "##\u9c7c": 20881, "##\u9ef4": 21014, "##\u5660": 14744, "\u5b3f": 2091, "##\u7eb3": 18344, "wong": 11615, "\u9ede": 7953, "##\u541b": 14466, "##\u8cc1": 19589, "##les": 8937, "##\u51ac": 14157, "\u969c": 7397, "\u9774": 7486, "##\u60a3": 15699, "##\u6861": 16495, "\u7a37": 4938, "##\u93a7": 20175, "##\u9f10": 21017, "\u881f": 6109, "##\u51cc": 14176, "##\u6e89": 17030, "\u6123": 2698, "\u7522": 4496, "af": 11782, "\u664f": 3234, "##\u300d": 13655, "\u85e9": 5974, "\u9a6c": 7716, "kde": 12543, "##\u51c7": 14172, "217": 10645, "##\u8bbc": 19447, "##\u8c6a": 19555, "\u8bfa": 6437, "\u8ce3": 6546, "\u64ae": 3065, "##\u7a42": 18002, "\u77e3": 4760, "##em": 9736, "15000": 10064, "##\u30e4": 13696, "##\u7edc": 18374, "\u6f78": 4063, "##\u6de1": 16966, "\u2571": 447, "nexus": 10390, "\u556c": 1572, "204": 10080, "\u4ea5": 770, "##yu": 10329, "host": 12387, "\u81a0": 5608, "cross": 12209, "##\u72a7": 17361, "##53": 9310, "rainer": 13076, "\u964c": 7359, "\u776a": 4723, "##\u7426": 17482, "##\u8f89": 19835, "##\u8fe5": 19886, "##\u50ad": 14056, "##ax": 10704, "##\u5009": 13999, "cnc": 12080, "04": 8147, "##\u0441": 13416, "##\u4e14": 13741, "650": 9291, "##\u7a62": 18008, "\u8662": 5999, "\u518d": 1086, "\u5962": 1951, "\u8717": 6054, "\u62c9": 2861, "##\u8846": 19177, "##\u8a6c": 19335, "##\u6c38": 16776, "##a": 8139, "\u7e8d": 5266, "\u5b5f": 2106, "\u727d": 4296, "\u5fe1": 2567, "\u7ea3": 5274, "\u5944": 1935, "\u520e": 1151, "pv": 10415, "bob": 10542, "##\u6284": 15883, "##ok": 9185, "october": 9548, "##host": 12227, "##\u52c3": 14291, "##\u757f": 17594, "##\u6c9b": 16821, "##\u62e8": 15941, "##\u5e93": 15474, "\u5fc6": 2554, "\u9706": 7447, "##\u68df": 16534, "##\u8bf0": 19486, "\u8bde": 6414, "##9": 8160, "##\u8386": 18855, "##\u77a0": 17798, "##\u91c1": 20079, "##\u8e64": 19754, "\u6fec": 4094, "##\u4fd7": 13978, "##\u9510": 20286, "##\u6c47": 16783, "38": 8218, "##\u6cab": 16830, "##\u8844": 19175, "##\u61f5": 15810, "\u529b": 1213, "\u8bc8": 6400, "cn": 8274, "##\u5bfa": 15248, "\u9808": 7519, "express": 9865, "\u6d6f": 3860, "disney": 12299, "##\u30e2": 13694, "##\u6625": 16274, "##\u6f2f": 17094, "##\u968e": 20446, "##\u57f8": 14880, "241": 10896, "\u4ed7": 801, "##\u30fc\u30b7": 10568, "yamservice": 8768, "intel": 8781, "##\u306a\u308a": 11592, "##\u887e": 19200, "\u7845": 4795, "\u5149": 1045, "\u7bea": 5073, "pure": 13179, "##\u9444": 20196, "##\u9ba8": 20858, "##\u84bc": 18952, "saas": 10362, "028": 11842, "ah": 10785, "ads": 12521, "\u6fb1": 4077, "##\u6148": 15762, "##\u5a67": 15102, "##rect": 13075, "\u272a": 502, "string": 11508, "##\u78a7": 17876, "zara": 10464, "\u4f83": 887, "\u7dbe": 5213, "##\u3044\u3044": 12993, "\u55ae": 1606, "union": 12161, "##\u5e9a": 15480, "##\u9da9": 20929, "##\u5355": 14353, "##\u9759": 20531, "##\u5929": 14978, "##\u795b": 17922, "##\u9e35": 20950, "##oa": 11355, "##\u70e6": 17229, "\u7a76": 4955, "##\u751c": 17551, "##\u6041": 15659, "##\u526f": 14256, "create": 12432, "##\u998d": 20727, "\u94db": 7197, "106": 8438, "\u6bd2": 3681, "der": 9157, "\u3068\u3057\u3066": 10147, "##\u776c": 17782, "\u5740": 1770, "182": 9952, "\u745b": 4446, "\u5501": 1532, "##up": 8838, "##\u5bff": 15252, "##\u8def": 19719, "##\u814c": 18631, "rebecca": 10418, "##\u8dcb": 19705, "##\u51cd": 14177, "tbs": 11773, "\u773c": 4706, "\u80a1": 5500, "\u97e7": 7505, "##\u7c26": 18138, "\u82b3": 5710, "##burg": 12433, "\u765c": 4620, "richard": 9875, "\u7ff1": 5433, "\u95d8": 7301, "##ko": 8827, "##\u30ad": 10781, "##\u311b": 13716, "##\u5238": 14228, "##\u596c": 15012, "##\u94e4": 20261, "##ut": 9194, "##\u7de8": 18283, "america": 11801, "\u8074": 5478, "\u8edf": 6727, "\u5907": 1906, "[unused88]": 88, "\u30a9": 596, "##38": 9137, "##\u30d5": 9383, "side": 12666, "\u7460": 4450, "##\u56e7": 14790, "##\u03b5": 13384, "##\u652f": 16175, "##\u7ee5": 18381, "\u5197": 1090, "##\u8046": 18520, "\u7433": 4432, "##\u75a3": 17608, "##\u81e8": 18688, "##ivity": 12165, "\u908b": 6921, "##\u860a": 19037, "\u11ab": 322, "##nome": 13125, "\u983c": 7537, "\u6539": 3121, "\u307f\u3066\u3059": 11870, "##rin": 13250, "\u9769": 7484, "\u753b": 4514, "\u5b5a": 2102, "747": 12331, "\u7c7c": 5103, "\u5308": 1261, "##lu": 10079, "\u6bfd": 3692, "##\u5e1a": 15424, "##0": 8129, "\u7ca4": 5113, "##db": 9123, "\u51f8": 1137, "##\u6cb1": 16833, "##\u7f8e": 18458, "dark": 12705, "##\u6ac3": 16659, "##ku": 9547, "219": 10453, "\u9676": 7378, "\u306b\u3064\u3044\u3066": 10779, "##\u72ec": 17381, "##\u0e21": 13445, "##\u5f53": 15553, "\u3082": 571, "\u7576": 4534, "\u6656": 3239, "##\u9806": 20575, "##\u2212": 13529, "##\u2170": 13519, "\u64fa": 3099, "edu": 9827, "##plus": 9682, "##\u8d63": 19675, "\u6674": 3252, "\u8ff9": 6839, "\u992e": 7632, "\ufe54": 8003, "\u6edf": 4006, "\u8304": 5746, "##are": 10305, "##\u4e13": 13740, "##\u6253": 15859, "##\u733e": 17407, "\u6e0a": 3929, "university": 8736, "\u9ca8": 7835, "##\u529e": 14272, "##\u7f04": 18403, "027": 12849, "research": 10018, "##\u8212": 18710, "##\u72f1": 17385, "\u84bf": 5896, "##pn": 12991, "\u789a": 4815, "##ese": 9692, "\u300e": 521, "\u5065": 978, "leonardo": 8579, "##vy": 11853, "givenchy": 12065, "##free": 13287, "##\u5173": 14125, "\u5b30": 2087, "##\u74e3": 17537, "##\u308a\u307e\u3059": 11395, "\u6901": 3487, "\u8dda": 6653, "change": 12319, "##\u6664": 16302, "##\u6d6e": 16916, "96": 8378, "301": 9693, "united": 9958, "##\u5211": 14209, "\u9686": 7384, "##\u6400": 16063, "pvc": 8656, "\u8e8a": 6711, "##\u898f": 19268, "##\u790e": 17900, "\u7afd": 5003, "##\u7ba1": 18109, "##\u7ec7": 18359, "##\u95ea": 20363, "##\u73ae": 17440, "\u776b": 4724, "\u6d6a": 3857, "switch": 10746, "##\u30f3\u30bf\u30fc": 11223, "##f": 8189, "\u6dcb": 3900, "gi": 12785, "\u5bf8": 2189, "\u6059": 2610, "\u6a19": 3560, "\u567c": 1700, "\u782d": 4785, "\u7c38": 5086, "\u6b27": 3616, "\u6e7f": 3969, "\u9c57": 7821, "ch": 9537, "##ima": 13028, "\u98b3": 7594, "##pop": 13015, "\u30b9\u30db\u30f3\u30b5\u30fc\u30b5\u30a4\u30c8": 12314, "##\u6e10": 16990, "\u61ab": 2738, "\u9080": 6913, "##\u54d4": 14573, "##\u5982": 15020, "##\u96f7": 20497, "##\u987d": 20616, "\u935b": 7104, "\u838e": 5801, "\u59e5": 2005, "\u886c": 6137, "\u3075": 564, "1932": 9737, "\u59fb": 2012, "##\u4e56": 13788, "##\u58c1": 14937, "##\u60e7": 15729, "##\u6b12": 16667, "1947": 9253, "##\u56eb": 14792, "##\u5edd": 15504, "##\u7562": 17582, "##\u82a9": 18759, "\u8f69": 6759, "##\uff4e": 11977, "##\u15dc": 13488, "##99": 8653, "##\u062f": 13431, "netscape": 8691, "##\u53e5": 14425, "##\u6ab8": 16657, "##\u8ed2": 19783, "\u588a": 1865, "##35": 8852, "##\u5e99": 15479, "\uff1f": 8043, "##\u5f52": 15552, "##\u2171": 13520, "idc": 9617, "\u9e49": 7902, "feel": 11297, "##\u7540": 17573, "##\u63f8": 16060, "##\u6726": 16367, "##\u5a31": 15088, "##\u7f70": 18448, "\u86fe": 6042, "##\u663e": 16284, "##\u7d17": 18213, "##\u1107": 13460, "##\u7d4c": 18234, "##\u3080": 13673, "1940": 9211, "\u5018": 951, "\u8fbc": 6807, "##\u56da": 14780, "dc": 8928, "##\u932b": 20152, "\u7701": 4689, "\u96c4": 7413, "##\u6c92": 16817, "##car": 9831, "##\u79b9": 17950, "kymco": 11013, "##\u8fbd": 19865, "[unused19]": 19, "##\u82e3": 18791, "##\u6657": 16297, "##\u5899": 14927, "\u6853": 3434, "##\u766e": 17685, "\u8d30": 6582, "\u30aa\u30fc\u30d5\u30f35": 11810, "zero": 10397, "scott": 10692, "##\u54c0": 14557, "##\u68da": 16533, "##\u9881": 20619, "\u635f": 2938, "\u8ca2": 6513, "##lar": 11208, "##jing": 12128, "\u4f6c": 878, "\u5631": 1671, "\u2027": 342, "\u50f5": 1018, "\u7c4c": 5092, "\u9031": 6867, "\u30f2": 641, "8g": 10019, "##cent": 11270, "##\u7ec5": 18357, "##\u0254": 13367, "##\u5862": 14911, "##\u5cea": 15346, "aphojoy": 9869, "##\u9069": 19957, "##\u9175": 20054, "##\u97e6": 20561, "\u5e7a": 2403, "\uff16": 8034, "##\u318d": 13724, "##\u5d17": 15362, "##\u5b81": 15180, "##\u7d50": 18235, "\u6e67": 3963, "\u8548": 5932, "\u30a1": 588, "##\u5395": 14386, "netflix": 10373, "##\u86ee": 19094, "##\u9051": 19942, "\u8bec": 6426, "\u607b": 2629, "##\u828a": 18748, "\u308d": 582, "square": 10897, "##\u8336": 18820, "\u92e4": 7082, "street": 9471, "\u7a31": 4935, "##\u57a2": 14860, "\u5cac": 2274, "17": 8126, "##\u6adb": 16661, "\u6490": 3052, "\u84d6": 5904, "\u5abd": 2061, "\u819d": 5607, "##field": 10901, "380": 9406, "##\u58ae": 14933, "\u5e15": 2364, "##\u6578": 16206, "##\u8bed": 19484, "\u8e76": 6704, "\u559f": 1601, "##\u5f99": 15592, "##\u9761": 20537, "text": 10539, "##\u80af": 18564, "cv": 10718, "##\u2030": 13503, "##\u52d0": 14295, "mysql": 9108, "\u7a9d": 4973, "##\u62ef": 15946, "\u5fea": 2570, "\u5ba3": 2146, "##\u75f9": 17648, "##\u5be7": 15237, "##bus": 10151, "\u9019": 6857, "ng": 8885, "\u6350": 2935, "##ei": 9384, "##\u76b0": 17707, "##\u80fa": 18599, "##\u8d2b": 19634, "##\u7f00": 18402, "##\u5c42": 15288, "##\u524c": 14240, "\u52c7": 1235, "\u990a": 7621, "\u726f": 4290, "\u80f4": 5539, "##\u5805": 14887, "##\u8bda": 19468, "\u8986": 6208, "##\u8c25": 19528, "\u2764": 506, "\u66ab": 3271, "\u88cf": 6166, "\u9f8a": 7980, "\u5598": 1596, "\u6a2a": 3566, "##\u7e73": 18317, "12306": 11914, "5g": 8711, "\u71c4": 4235, "525": 11717, "##\u6387": 16012, "1gb": 12206, "##\u8466": 18927, "##\u9119": 20025, "\u8ecc": 6724, "\u95ed": 7308, "##\u5192": 14145, "##\u5f87": 15579, "\u99d5": 7690, "##\u66c6": 16335, "\u8d48": 6600, "\u9664": 7370, "\u5351": 1292, "##el": 8472, "##\u5b83": 15181, "##\u9e5c": 20966, "\u5f87": 2522, "##\u9e9d": 20985, "30ml": 11234, "\u8df5": 6664, "gartner": 12784, "##\u5e9f": 15483, "\u9035": 6869, "##\u4f65": 13933, "##\u637b": 16008, "\u9009": 6848, "\u982d": 7531, "\uff5b": 8077, "1920": 9208, "##\u72e0": 17378, "##\u8638": 19042, "\u7be4": 5071, "##\u8870": 19196, "##\u937e": 20166, "630": 10615, "\u6aac": 3597, "\u3010": 523, "\u914d": 6981, "##firm": 12240, "##\u6137": 15759, "##\u922a": 20107, "##\u85dd": 19028, "##\u82ab": 18761, "##\u3088\u3063\u3066": 12957, "##\u7c4c": 18149, "##ress": 11142, "251": 10924, "##\u5bbe": 15218, "\u7d1c": 5161, "##\u7e93": 18325, "##\u6979": 16573, "287": 11525, "34e": 11614, "\u3066\u3059\u304b": 11244, "##\u5cc7": 15337, "\u6b49": 3624, "\u80b2": 5509, "\u592d": 1924, "lol": 8817, "##i": 8169, "\u59e3": 2004, "\u96b4": 7404, "\u9b0d": 7778, "\u732c": 4345, "\u6777": 3349, "link": 9025, "##link": 9989, "##\u554f": 14615, "##\u5c4d": 15297, "##\u8a72": 19340, "\u7436": 4435, "\u9170": 6995, "\u6562": 3140, "\u655b": 3137, "\u8525": 5920, "\u9047": 6878, "##\u8180": 18655, "##\u91c9": 20081, "##\u7d04": 18204, "\u93d7": 7124, "\u56e2": 1730, "##\u6e8f": 17031, "\u60e7": 2672, "\u7b26": 5016, "\u7528": 4500, "weibo": 10565, "##\u6212": 15827, "\u25ac": 463, "\u69e4": 3548, "##\u89e3": 19294, "##\u69f3": 16608, "\u7d5e": 5180, "##\u9985": 20723, "##\u8717": 19111, "match": 12528, "\u5973": 1957, "##\u5b75": 15175, "##\u5654": 14740, "##\u934d": 20160, "##\u4f7c": 13942, "##\u803f": 18518, "050": 11972, "\u9a57": 7710, "step1": 8905, "##\u534a": 14345, "\u94fe": 7216, "\u8171": 5588, "##fig": 11392, "##\u5049": 14028, "##\u76c8": 17716, "\u8ae7": 6321, "\uff11\uff11": 10300, "gr2": 9293, "##\u82be": 18773, "\u7ecf": 5307, "energy": 11939, "\u6a71": 3586, "##\u4e4f": 13783, "\u7131": 4196, "##\u3092": 8292, "##\u8edf": 19784, "\u6845": 3426, "##\u8bfa": 19494, "##\u65a1": 16221, "\u69fb": 3552, "##?": 13337, "##\u7248": 17333, "##\u72c0": 17368, "\u95a8": 7286, "##\u7a69": 18009, "##flow": 11522, "cream": 11494, "\u5c16": 2211, "\u8853": 6123, "##\u690e": 16548, "##\u7c92": 18165, "\u99c6": 7687, "\u2028": 343, "43": 8250, "\u306a\u3057": 9930, "##\u5b3f": 15148, "\u8ddd": 6655, "##\u8270": 18737, "##\u9320": 20148, "\uff07": 8019, "##\u94e2": 20259, "\u653b": 3122, "##\u56b4": 14770, "##\u8845": 19176, "##\u8ae7": 19378, "##\u8bf8": 19493, "381": 12185, "\u7cb3": 5120, "##\u4f97": 13953, "##\u6e58": 17017, "##\u5f14": 15527, "\u9e23": 7885, "##\u74f7": 17544, "\u520d": 1150, "metal": 13259, "##\u53bf": 14401, "##\u7662": 17680, "\u6784": 3354, "vpn": 9358, "\u5176": 1071, "dt": 13260, "boost": 11986, "##\u5ce8": 15345, "##\uff08": 21077, "##type": 11085, "##\u961f": 20396, "##\u9a0e": 20754, "mtv": 11529, "\u6190": 2730, "##\u85af": 19018, "##\u7f72": 18449, "\u5457": 1446, "\u5b9d": 2140, "\u80f8": 5541, "##urt": 10857, "##\u8026": 18510, "\u9540": 7249, "##\u8f69": 19816, "\u629f": 2840, "##\u7a32": 17993, "\u8c41": 6485, "##\u7962": 17928, "##\u52d2": 14296, "##\u5228": 14220, "\u86ca": 6027, "543": 11895, "##\u5c09": 15259, "##\u9a73": 20779, "\u7957": 4863, "\u4efd": 819, "\u704c": 4118, "\u6b66": 3636, "\u8569": 5939, "\u9150": 6982, "\u7db2": 5206, "girls": 10803, "\u25b2topjan": 10601, "##\u02c8": 13372, "##\u62d9": 15930, "non": 12002, "##\u904b": 19937, "##ey": 8603, "\u632a": 2918, "##24": 8682, "##\u9b4d": 20850, "{": 169, "##\u0627": 13427, "##400": 10765, "\u6001": 2578, "##\u751a": 17550, "##\u679d": 16420, "252": 10968, "##\u6383": 16011, "##\u89c9": 19287, "\u978b": 7490, "posted": 8486, "gmail": 8637, "##her": 9856, "xyz": 11266, "\u9b1a": 7780, "\u511f": 1030, "php": 8531, "2300": 10000, "##\u1169": 13005, "roger": 13033, "##\u6de4": 16967, "##\u7405": 17471, "yougou": 10852, "##port": 9356, "##\u6670": 16308, "##\u67f5": 16453, "rgb": 11189, "##\u731c": 17396, "\u9c49": 7819, "\u0111": 195, "\u9d70": 7869, "##\u7344": 17409, "##\u5176": 14128, "\u301e": 532, "##let": 10780, "##\u900a": 19906, "##\u94f5": 20269, "##\u9598": 20338, "\u201e": 338, "\u63c9": 2987, "##\u5026": 14015, "##\u3051\u308b": 11760, "[unused76]": 76, "##load": 11713, "##\u6251": 15857, "rock": 10092, "##\u9591": 20334, "##28": 8835, "82": 8460, "joy": 12668, "act": 10355, "\u5e6b": 2396, "##\u56ea": 14791, "double": 11255, "##\u5e54": 15447, "##\u75ca": 17628, "##\u30fc\u30f3": 12966, "nano": 13057, "##\u6c85": 16811, "\u68a8": 3459, "##ified": 13237, "\u6db5": 3891, "##\u55e3": 14689, "##ggle": 11747, "##\u7b50": 18085, "##\u8bd9": 19467, "\u98af": 7592, "##\u6840": 16479, "##\u7c07": 18134, "f4": 11464, "##\u7b3c": 18078, "3mm": 12064, "##\uff3e": 21092, "coffee": 9706, "\u5a49": 2039, "\u86c0": 6024, "\u9549": 7253, "friends": 11488, "##\u5d47": 15370, "\u11a8": 321, "##mple": 12581, "\u8150": 5576, "##\u6321": 15970, "##72": 9492, "\u6cc9": 3787, "##\u5f11": 15524, "\u8331": 5759, "##\u88f4": 19236, "180": 8420, "\uff3b": 8045, "##\u5a09": 15077, "##po": 9401, "950": 10468, "will": 9339, "##\u00a3": 13348, "178": 9649, "##\u8c4c": 19548, "##\u93ac": 20176, "##\u6d46": 16898, "qa": 10818, "\u5b43": 2093, "\u537f": 1321, "##ane": 10581, "rt": 10678, "##\u30e9": 9210, "##\u521a": 14214, "\u4e98": 760, "##ae": 10361, "##\u73fe": 17469, "##\u9824": 20586, "\u5858": 1851, "\u75f9": 4591, "opera": 10917, "##\u4eae": 13835, "##\u4fa3": 13958, "##\u674e": 16387, "##\u77e2": 17816, "\u6a38": 3571, "##\u8004": 18498, "##\u8b7d": 19420, "\u555f": 1564, "##\u8cf4": 19609, "##\u9e92": 20982, "japan": 9151, "##\u53cc": 14409, "\u766c": 4627, "\u5abe": 2062, "\u5be6": 2179, "##\u5608": 14705, "##\u5417": 14465, "##\u6258": 15862, "\u54e9": 1524, "\u65a5": 3166, "\u7463": 4451, "display": 11830, "##\u6467": 16096, "\u94e9": 7206, "##\u50ac": 14055, "##\u86a9": 19076, "##\u9020": 19920, "\u614c": 2707, "0020": 8746, "##\u4efd": 13876, "##\u817e": 18653, "\u7dab": 5202, "277": 11064, "##\u4ea5": 13827, "##tr": 11309, "\u03c1": 224, "\u692a": 3494, "\u8d44": 6598, "##\u63e9": 16054, "##mark": 9882, "##\u9d3f": 20920, "\u8a6d": 6279, "##page": 11817, "##\u5306": 14317, "##\u59a9": 15039, "##\u2464": 13560, "\u3124": 662, "\u838a": 5800, "##\u74e6": 17539, "##\u7684": 17695, "\u6096": 2638, "\u5ae3": 2073, "1885": 13124, "##\u9226": 20106, "##\u98fd": 20673, "\u30e8": 634, "\u7ee9": 5327, "\u7ede": 5319, "\u8aa8": 6302, "##\u6da7": 16941, "akb48": 10521, "\u66b8": 3275, "510": 10907, "zoom": 12356, "##\u5352": 14350, "##\u94c0": 20244, "##\u614b": 15763, "\u853a": 5926, "##\u823e": 18729, "##360": 10408, "\u5f25": 2477, "\u9ad3": 7767, "##\u8606": 19035, "##ary": 9277, "king": 9382, "##\u9610": 20388, "\u30ab": 598, "##lot": 10580, "\u256f": 445, "##come": 12097, "##\u71fc": 17310, "##61": 8978, "##\u8d67": 19678, "##\u947d": 20205, "\u8111": 5554, "##\u7334": 17404, "m4": 11964, "\u9707": 7448, "\u66fc": 3294, "##lmer": 12763, "##\u305f\u3081": 10312, "hold": 10389, "fit": 11188, "##\u62ab": 15904, "victoria": 12445, "##\u6c83": 16810, "##\u8a3a": 19319, "##ging": 12374, "\uff72": 8088, "##\u6dae": 16945, "\u52c9": 1236, "\u0436": 239, "##dden": 13109, "please": 11744, "\u6b22": 3614, "##raph": 12220, "junior": 12552, "\u6d8c": 3869, "##\u5544": 14611, "\u7741": 4709, "\u6a35": 3570, "\u87f9": 6101, "##wer": 10668, "\u3078\u306e": 11021, "##\u6c8c": 16814, "##ria": 10159, "\u576f": 1791, "\u72ed": 4325, "##\u6d47": 16899, "##\u9e75": 20975, "##\u5d4a": 15371, "\u6d3c": 3834, "##\u4fed": 13990, "##copyright": 13291, "\u94a4": 7169, "##\u96bd": 20466, "\u63e9": 2997, "\u9062": 6896, "##\u62d3": 15925, "##\u5f4c": 15550, "##\u62bc": 15909, "\u7fce": 5423, "\u6266": 2808, "\u56dd": 1725, "##tic": 9759, "\u5cb7": 2278, "\u628a": 2828, "\u9e35": 7893, "\u9837": 7533, "\u9824": 7529, "##\u4f8d": 13949, "deep": 12592, "8891": 10546, "##\u589e": 14929, "##you": 12441, "\u7f30": 5371, "##\u4e8f": 13812, "\u74a8": 4471, "##\u5931": 14984, "\u5fd0": 2558, "\u4e0d": 679, "\u94c4": 7191, "##\u7ea3": 18331, "\u6078": 2627, "\u5618": 1656, "\u948a": 7153, "##\u7d43": 18231, "[unused24]": 24, "\u4e0b": 678, "130": 8463, "##\u8872": 19197, "##tical": 11912, "\u716e": 4215, "\u752f": 4505, "\u52d5": 1240, "##\u90ce": 20004, "\u529e": 1215, "900": 8567, "##\u8e35": 19740, "\u54a6": 1484, "start": 10906, "##\u6897": 16510, "\u5a3c": 2035, "##\u7b4a": 18081, "##\u539f": 14390, "\u868a": 6011, "##\u6c08": 16750, "##\u711c": 17248, "##\u9f20": 21019, "gov": 9514, "\u526a": 1198, "##89": 9402, "##\u9438": 20194, "500g": 12623, "##\u6e17": 16992, "e2": 12357, "\u30ce": 618, "\u6389": 2957, "\u877c": 6081, "\u968f": 7390, "\u8f97": 6786, "##\u8df7": 19722, "##60": 8581, "\u6807": 3403, "\u54bf": 1499, "\u909d": 6927, "\u602a": 2597, "\u116e": 315, "ngo": 11770, "##\u4e59": 13791, "##\u9245": 20113, "\u7559": 4522, "\u8033": 5455, "##\u4f7b": 13941, "##ize": 11789, "chanel": 9366, "\u306f\u304a": 13232, "##\u624b": 15854, "##\u57f7": 14879, "##\u6210": 15825, "\u6726": 3310, "\u2219": 379, "eyes": 12909, "\u310e": 654, "##\u703e": 17174, "##\u7ad6": 18047, "\u3042": 534, "##\u6c2e": 16770, "\u3106": 648, "##\u903c": 19930, "##\u6293": 15888, "278": 11191, "\u77f6": 4768, "\u30cf": 619, "##\uff45": 10726, "##\u5893": 14924, "##\u72e1": 17379, "##\u8859": 19183, "\u621b": 2775, "jordan": 9229, "##\u8932": 19251, "\u9a90": 7743, "##\u9676": 20435, "##nd": 8735, "##\u1105": 13458, "\u7cf8": 5142, "\u5fa0": 2538, "94": 8416, "##,": 13328, "\u223d": 390, "2765": 9513, "##\u9888": 20625, "\u2502": 429, "\u724c": 4277, "\u8365": 5785, "##\u5c24": 15272, "##\u6399": 16021, "\u814e": 5575, "##\u529d": 14271, "##\u6d31": 16884, "##\u859b": 19012, "##\u8352": 18831, "\u8e81": 6708, "\u9b1f": 7781, "##\u7acb": 18046, "##\u0644": 13435, "\u6ca7": 3771, "##\u707d": 17191, "\u5df3": 2348, "1234": 10343, "\u55d3": 1624, "\u91d7": 7033, "458": 12562, "##\u5c3e": 15284, "##\u6807": 16460, "##74": 9743, "\u0430": 233, "##\u5154": 14109, "##\u951f": 20290, "##\u53f7": 14441, "\u56ea": 1734, "##\u6062": 15669, "nu": 12797, "##\u7687": 17697, "\u70fd": 4182, "\u6a2b": 3567, "8000": 8623, "##\u4e24": 13754, "\u79f8": 4918, "\u70c2": 4162, "\u9d1b": 7859, "\u76ea": 4679, "##\u5951": 15000, "price": 11597, "##\u7eb0": 18341, "faq": 9065, "\u84cb": 5901, "\u6c5f": 3736, "##\u6735": 16378, "##\u90eb": 20014, "\u5f7c": 2516, "\u89b7": 6220, "\u5492": 1473, "835": 10462, "\u02ca": 203, "##\u8108": 18605, "\u6f54": 4049, "\u5824": 1837, "##\u9700": 20501, "##\u502d": 14020, "##\u7968": 17930, "\u5af2": 2076, "\u84a1": 5889, "\u30c1": 609, "\u30df": 625, "\u64c5": 3078, "\u5ba4": 2147, "##\u5bae": 15209, "##\u62da": 15931, "\u8424": 5851, "\u65af": 3172, "\u90fd": 6963, "spring": 11043, "\u7dbd": 5212, "##\u7a3c": 17998, "\u5f80": 2518, "\u8cc8": 6537, "\u8c1c": 6466, "\u696e": 3512, "##\u694a": 16558, "##\u8863": 19189, "\u62dc": 2876, "##\u4f5b": 13924, "##\u5ca1": 15328, "##\u633d": 15981, "\u4e66": 741, "\u7329": 4342, "##ium": 9750, "\u987d": 7559, "##\u6613": 16268, "\u5974": 1958, "##\u558e": 14650, "##own": 11751, "##\u69ab": 16587, "[unused2]": 2, "\u67ad": 3368, "##\u5c3b": 15281, "\u808c": 5491, "\u5e18": 2366, "2016": 8112, "\u54d4": 1516, "##\u7aaf": 18039, "\u8aad": 6305, "\u8c2c": 6477, "\u560e": 1652, "##\u4f1e": 13892, "##\u70b3": 17211, "\u0633": 267, "##\u9dd7": 20932, "\u3042\u308a\u306a": 13022, "##\u8823": 19169, "##\u704c": 17175, "\u8513": 5913, "\u794e": 4859, "##\u83c1": 18878, "\u73b3": 4387, "\u8cfd": 6555, "\u5760": 1785, "##\u1101": 13455, "##\u2476": 13568, "##\u82b7": 18768, "\u60e0": 2669, "##\u6fdf": 17146, "##\u536e": 14368, "\u307b": 566, "##\u7a2e": 17991, "yes": 9719, "##ara": 10225, "si": 10883, "##\u6514": 16162, "\u0629": 263, "\u2464": 409, "##\u6cb3": 16834, "##\u519b": 14149, "##\u9910": 20680, "\u55c6": 1619, "\u76b1": 4651, "##\u574d": 14831, "##\u7094": 17201, "\u5be7": 2180, "\u9cab": 7836, "341": 12117, "\u6253": 2802, "hgih": 11674, "##\u5c96": 15322, "##\u54e6": 14578, "common": 13050, "s8": 8940, "661": 10854, "##\u5b40": 15149, "\u5137": 1034, "##cts": 12175, "dance": 12371, "##\u3017": 13664, "##\u2071": 13511, "##\u5e2f": 15434, "\u5eab": 2430, "\u584a": 1846, "\u967d": 7382, "\u8200": 5641, "\u6414": 3014, "##\u61f7": 15812, "\u50c5": 1006, "\u5984": 1965, "##\u4e10": 13738, "\u5606": 1647, "##\u5ec9": 15499, "\u5d58": 2318, "\u7f38": 5374, "##\u4e11": 13739, "##\u5408": 14451, "##\u6490": 16109, "\u5527": 1543, "\u6218": 2773, "\u88ad": 6159, "##\u6b87": 16709, "\u7c41": 5090, "##\u7246": 17331, "\u81f4": 5636, "##\u586b": 14913, "##\u6574": 16203, "\u5e3d": 2384, "117": 9149, "##\u785d": 17856, "##\u8734": 19119, "##\u8882": 19203, "##\u932f": 20154, "##\u9502": 20277, "\u65bd": 3177, "\u72c2": 4312, "\u7368": 4360, "\u221f\u2223": 12979, "##\u6518": 16163, "##\u793a": 17907, "##\u9f9f": 21048, "\u76d2": 4665, "##\u88dc": 19228, "\u5076": 981, "##\u75b5": 17617, "robert": 9441, "##\u8ab0": 19363, "##\u9aa1": 20808, "##\u966a": 20430, "\u79df": 4909, "orz": 10836, "##\u62a8": 15903, "##\u7e37": 18300, "##\u5a32": 15089, "\u5ff1": 2572, "0": 121, "##\u5636": 14731, "american": 9735, "information": 11237, "vdf": 13261, "\u8d2c": 6578, "##\u73e0": 17460, "##\u7d5e": 18237, "json": 12249, "##\u991e": 20686, "##so": 9974, "\u72fd": 4332, "\u8adc": 6318, "\u8d56": 6609, "##\u68a2": 16513, "##\u8be3": 19476, "\u56f3": 1740, "\u8b74": 6361, "\u9530": 7243, "##\u95cd": 20354, "\u7838": 4790, "\u3057\u3066\u304a\u308a": 12340, "\u9871": 7550, "\u66ec": 3287, "##\u6f5e": 17110, "##\u7d62": 18239, "##\u9daf": 20930, "\u611a": 2694, "\u7e69": 5256, "##\u626c": 15870, "##\u8fbe": 19866, "\u8a23": 6254, "##\u87a8": 19144, "\u5247": 1179, "\u53ea": 1372, "##\u952d": 20297, "##\u5201": 14201, "\ufe61": 8011, "##80": 8538, "##\u620d": 15822, "\u6c68": 3740, "475": 13243, "##\u69e4": 16605, "\u593a": 1932, "\u9245": 7056, "##\u626f": 15873, "[unused81]": 81, "##\u6809": 16462, "\u9cb2": 7838, "\u7cfe": 5144, "\u4eff": 820, "\u528f": 1211, "\u76c8": 4659, "mall": 9628, "##\u4e69": 13799, "##\u65cf": 16241, "\u52a8": 1220, "\u8e7c": 6706, "\u9214": 7045, "##\u6e1d": 16996, "\u7352": 4356, "##\u2460": 13556, "##\u7738": 17761, "##\u91aa": 20071, "\u65ad": 3171, "229": 10608, "place": 10963, "##\u79e7": 17970, "\u03bc": 220, "\u75e0": 4580, "\u95ea": 7306, "##\u75f4": 17647, "##\u8340": 18824, "\u7ef6": 5337, "50ml": 11538, "\u54b2": 1494, "##\u1106": 13459, "##\u7490": 17523, "[": 138, "##\u7f61": 18443, "##\u80f6": 18597, "\u7ce0": 5137, "##\u2466": 13562, "##\u796f": 17932, "\u2081": 355, "\u3059": 548, "##\u82eb": 18794, "\u5617": 1655, "\u8d08": 6557, "html5": 9302, "##\u30c3\u30af": 9244, "##\u1111": 13468, "##\u558f": 14651, "##google": 10626, "\u72e0": 4321, "##\u3068\u3066\u3082": 13211, "nature": 10467, "##put": 11300, "living": 12113, "##\u51ed": 14188, "20\u2103": 12926, "##\u221e": 13533, "ro": 12910, "##\uff1b": 21085, "##ie": 8402, "\uff06": 8018, "\ud83d\udd25": 8103, "\u9ad6": 7769, "\u85f9": 5975, "401": 11185, "\u9957": 7643, "[unused40]": 40, "##bo": 8820, "\u7aaa": 4980, "\u1103": 291, "\u8a8d": 6291, "##600": 10346, "\u651e": 3110, "kk": 11923, "\u8e1d": 6674, "fairmont": 12208, "\u7e54": 5251, "##\u6c74": 16802, "##\u7a97": 18027, "##\u819b": 18662, "##\u8beb": 19482, "\u82f9": 5741, "\u991a": 7627, "die": 11633, "\u87c6": 6093, "\u9e2f": 7891, "##\u908f": 19979, "\u51be": 1111, "\u50ad": 999, "\u64d4": 3085, "\u92ad": 7074, "ucbug": 11374, "##\u02d9": 13377, "##\u571c": 14815, "##\u5c61": 15306, "\u6c9b": 3764, "\u54d0": 1513, "\u596c": 1955, "\u6714": 3304, "\u76ba": 4653, "\u9cc3": 7842, "##\u4fe1": 13985, "##\u5fe1": 15624, "##\u5366": 14365, "##\u7845": 17852, "##\u7ebd": 18351, "##\u8364": 18841, "[unused22]": 22, "\u8332": 5760, "\u6d4b": 3844, "\u8202": 5642, "\u8774": 6078, "\u6994": 3524, "\u5a9b": 2056, "##92": 9595, "##pc": 10022, "##\u503e": 14024, "##\u30eb\u30d5": 12968, "##\u97ec": 20564, "##\u5472": 14512, "##\u52a9": 14278, "ctrl": 8947, "\u975b": 7476, "##\u5624": 14721, "\u5e33": 2379, "\u965d": 7364, "guestname": 13082, "\u534d": 1289, "\uff63": 8083, "\u8aa3": 6298, "##\u600e": 15639, "##\u629c": 15895, "##\u76cf": 17719, "##\u79f0": 17974, "##\u8acb": 19370, "##\u8e31": 19738, "\u8c50": 6493, "##\u98b1": 20650, "##baby": 12515, "copy": 11669, "##\u668c": 16319, "##82": 9605, "\u900a": 6849, "##nt": 8511, "cry": 10485, "\u5e4c": 2389, "stop": 11467, "##\u6fe0": 17147, "##\u85fb": 19033, "\u50bb": 1004, "##\u30f2": 13702, "\u5dd4": 2333, "\u6289": 2827, "##of": 10150, "##\u8457": 18922, "##ace": 10026, "##\u767e": 17693, "false": 11457, "##\u9a9a": 20803, "##\u908a": 19977, "##\u6255": 15861, "\u85d0": 5967, "\u73a9": 4381, "b6": 11384, "\u631a": 2907, "\u557b": 1581, "##\u6ce3": 16855, "\u30a6": 593, "##lor": 12422, "##\u96cb": 20475, "##\u5b1b": 15140, "##\u537b": 14377, "280": 8933, "##\ufe51": 21058, "\u8e49": 6689, "##\u6ec2": 17049, "##\u545b": 14505, "\u80c1": 5516, "777": 9800, "buff": 11321, "##\u9e43": 20955, "\u60d5": 2664, "##t00": 9260, "\u773a": 4705, "6p": 12786, "\u590f": 1909, "##\u309c": 13678, "\u5fc3": 2552, "x3": 10689, "e1": 12298, "\u865b": 5995, "##\u6804": 16458, "##\u8385": 18854, "wifi": 8306, "\u30c6\u30ea\u30d8\u30eb": 12739, "california": 13293, "##\u8f1d": 19797, "##\u95a3": 20341, "##\u5bf5": 15244, "##\u5e6b": 15453, "##\u9765": 20539, "\u1111": 302, "\u3044\u3066\u3059": 12837, "\u84ff": 5911, "##cept": 11877, "##\u7c50": 18151, "##\u8bfe": 19497, "##\u629f": 15897, "\u63cd": 2988, "\u7178": 4217, "\u5982": 1963, "\u72fc": 4331, "##\u8237": 18725, "\u94e1": 7201, "##vertisement": 12021, "\u8fe6": 6830, "##\u6390": 16017, "\u4fd1": 920, "\u5549": 1556, "##wu": 12144, "##\u6dc0": 16952, "dollars": 9448, "\u8d99": 6635, "acca": 11417, "##\u6b93": 16714, "v9": 11894, "f3": 11651, "##ow": 9024, "\u971c": 7458, "\u9a19": 7700, "[unused57]": 57, "\u2039": 347, "\u595a": 1949, "\u803f": 5461, "##\u8f67": 19814, "##\u58de": 14946, "\u6b89": 3653, "##\u56d4": 14778, "\u828b": 5692, "##\u8eba": 19777, "adidas": 8953, "\u7535": 4510, "##\u6f62": 17112, "##\u30d5\u30c8": 10868, "##\u308c\u3066": 12034, "##\u6266": 15865, "##\u5ec8": 15498, "\u948f": 7155, "##\u832c": 18813, "\u90c1": 6944, "college": 10319, "##\u83df": 18889, "\u868c": 6012, "\u98a2": 7587, "##$": 13320, "##\u5e3c": 15440, "\u5de2": 2338, "\u67b6": 3373, "\uff0b": 8023, "##\u77a7": 17800, "##\u9ea6": 20988, "\u7613": 4599, "\u544a": 1440, "ray": 10043, "\u775b": 4714, "\u560c": 1650, "\u5dcd": 2331, "arduino": 12697, "##\u6614": 16269, "##\u6dd8": 16962, "##\u8511": 18969, "\u8e8b": 6712, "his": 10163, "##\u95d4": 20355, "s3": 10647, "\u9ab0": 7757, "\u9cb1": 7837, "\u307f\u306e": 10354, "\u79fd": 4920, "##\u96dc": 20486, "\u7686": 4639, "\u5480": 1463, "##\u54af": 14549, "##\u5ffd": 15632, "\u830e": 5749, "\u8398": 5805, "pm1": 11819, "\u6930": 3496, "##ale": 11079, "\u59d1": 1996, "##\u6b21": 16670, "\u57ab": 1807, "\u8d34": 6585, "##\u8bb3": 19440, "\u83c7": 5823, "\u5a09": 2020, "##\u8a62": 19330, "##\u73c9": 17452, "\u678b": 3357, "##dical": 13168, "##\u1112": 13469, "\u304d": 542, "q10": 11382, "##\u5a34": 15090, "ghost": 10797, "##\u517d": 14134, "\u6cfe": 3814, "1898": 11459, "hadoop": 10956, "##ung": 9112, "##dot": 12402, "\u69b7": 3535, "\u7ef7": 5338, "##\u69bb": 16593, "##\u83d8": 18887, "\u624b": 2797, "\u8e87": 6709, "##\u549a": 14537, "##\uff46": 21095, "##\u7768": 17779, "\u4e4e": 725, "##\u4f83": 13944, "\u5e9a": 2423, "##\u6bc6": 16733, "\u2215": 378, "\u826e": 5678, "##dp": 11497, "##onsored": 12504, "\u500b": 943, "\u308c\u305f": 13163, "##\u59d7": 15057, "\u679c": 3362, "02": 8150, "##\u6e7f": 17026, "##\u53f3": 14438, "\u7a83": 4961, "\u54a7": 1485, "\u81fa": 5637, "\u873f": 6065, "\u5d29": 2309, "\u8217": 5656, "\u835e": 5779, "##es": 8333, "mb": 9499, "bloomberg": 10313, "415": 12114, "##\u5a3c": 15092, "##\u6016": 15644, "\u77b3": 4749, "\u2477": 418, "\u8301": 5743, "published": 12821, "##\u8c0e": 19510, "##\uff5a": 21100, "\u7a0b": 4923, "\u9898": 7579, "##\u60b2": 15707, "\u66dd": 3284, "\u258b": 455, "##\u637a": 16007, "##\u88d9": 19227, "\u56e1": 1729, "\u53e5": 1368, "\u718a": 4220, "\u76d4": 4666, "21": 8128, "##\u9e97": 20984, "\u9b31": 7786, "word": 8681, "\u9492": 7156, "##\u8ca7": 19571, "##\u8028": 18511, "[unused71]": 71, "##\u5080": 14043, "\u91c1": 7022, "design": 9225, "##\u306e\u306f": 10093, "\u54bb": 1497, "\u81bf": 5617, "wed": 8585, "##\u7a1c": 17986, "\u9e22": 7884, "##\u9f63": 21031, "\u5154": 1052, "##\u714c": 17259, "##\u94b1": 20235, "\u606d": 2621, "\u5024": 957, "\u653e": 3123, "##\u2215": 13530, "##\u4e0b": 13735, "1948": 9130, "##\u8c49": 19546, "##36": 9159, "##\u626e": 15872, "\u5195": 1089, "angel": 9561, "\u2588": 453, "\u8d5a": 6611, "23": 8133, "fc": 10443, "##\u7a1a": 17985, "##\u4f2f": 13900, "##\u8f9c": 19847, "##\u6d4b": 16901, "##1000": 10529, "\u562e": 1668, "\u750c": 4489, "##\u7bc4": 18118, "\u7bc6": 5062, "##\u6c26": 16765, "##tina": 10584, "##\u5ac2": 15121, "do": 8895, "rcep": 12361, "##012": 12037, "\u57d4": 1815, "atom": 8941, "##\u7551": 17577, "\u5ced": 2290, "\u7566": 4527, "\u923e": 7053, "\u84e6": 5907, "##\u51bd": 14167, "##\u7b8b": 18101, "\u88d4": 6167, "##\u5d4b": 15372, "\u5889": 1864, "##\u603b": 15657, "##\u6e14": 16991, "\u6bd7": 3685, "##ba": 8668, "##\u3011": 13659, "\u58ee": 1896, "\u63d2": 2991, "##\u795d": 17924, "\u5416": 1407, "\u64d8": 3086, "##\u69d0": 16600, "##\u8461": 18925, "##/": 13331, "\u9a5b": 7712, "\u9432": 7134, "##berry": 10793, "##\u573a": 14824, "##\ufe31": 21050, "##\u8572": 18999, "##\u65a4": 16222, "##\u737c": 17426, "##\u73bb": 17447, "area": 13224, "\u7eb1": 5285, "##kit": 11217, "\u3059\u308b\u3068\u3042\u306a\u305f\u306b\u3082\u3063\u3068\u30de\u30c3\u30c1\u3057\u305f": 12153, "\u9057": 6890, "\u30b7": 604, "##\u68a6": 16514, "\u5188": 1082, "##\u7da0": 18256, "\u7768": 4722, "4k": 8574, "\u7cae": 5117, "\u8de4": 6658, "ipv6": 12082, "##\u4ea9": 13831, "##\u8c04": 19502, "\u958b": 7274, "vision": 10762, "##\u885d": 19185, "##\u557e": 14640, "\u781a": 4780, "##que": 9477, "##\u9e3f": 20953, "##\u7d09": 18206, "\u80a0": 5499, "##\u912d": 20029, "##\u793c": 17908, "##gy": 9765, "\u5690": 1705, "\u666f": 3250, "##\u25ac": 13609, "##\u78fa": 17898, "\u7a88": 4963, "\u84d1": 5902, "\u4f38": 847, "\u99b4": 7683, "\u88b1": 6160, "##\u64e2": 16148, "191": 10330, "\u9ef4": 7957, "##\u73a0": 17436, "##\u7e8c": 18322, "\u5478": 1459, "\u5b9c": 2139, "off": 9594, "##\u706b": 17182, "##\u9606": 20383, "\u5ab3": 2060, "##\u98d5": 20659, "\u5d11": 2302, "##\u8cc3": 19591, "\u59ae": 1984, "fire": 11229, "##\u984c": 20596, "##\u9eb8": 20992, "##ult": 9766, "\u5a77": 2051, "\u8d9f": 6636, "##\u64cd": 16139, "\u98a7": 7590, "##\u1d50": 13493, "##\u8169": 18640, "##\u707e": 17192, "##\u8eb2": 19776, "\u5660": 1687, "ufo": 10012, "\u6e7e": 3968, "\u3066\u3059": 8296, "##\u6e0a": 16986, "##\u606c": 15677, "86": 8352, "##\uff15": 8901, "##\u6155": 15767, "sea": 11007, "##\u93fd": 20188, "ai": 8578, "##\u6234": 15842, "\u7abf": 4984, "\u3057\u307e\u3059": 8845, "##\u6e83": 17028, "##back": 10102, "\u7ec0": 5297, "##2012": 9285, "sars": 12390, "##\u9e55": 20964, "1927": 9620, "\u309c": 586, "##anda": 13300, "##\u8bde": 19471, "500ml": 13023, "##\u062a": 13430, "##\uff63": 21105, "1250": 11591, "collection": 11024, "\u8dba": 6643, "\u737a": 4367, "xml": 9094, "##\u4e1d": 13749, "##\u8564": 18994, "\u561f": 1661, "##\u79be": 17954, "\u74f7": 4487, "find": 11707, "\u064a": 274, "\u91ab": 7015, "##\u8f13": 19793, "usd": 9259, "\u6fa7": 4076, "\u8c01": 6443, "72": 8325, "party": 9126, "\u309d": 587, "\u6cb3": 3777, "##\u6d44": 16896, "##\u8bf6": 19491, "\u6413": 3013, "\u2264": 394, "\u989b": 7581, "pi": 10091, "\u82ad": 5706, "\u5074": 979, "##\u5501": 14589, "##\u9875": 20609, "feb": 9694, "##\u91ac": 20073, "\u7099": 4147, "\u887f": 6144, "##\u3066\u304a": 12878, "##\u8fdc": 19880, "##\u962a": 20398, "##\u11ab": 9877, "\u892a": 6192, "##\u52aa": 14279, "##\u9183": 20059, "\u6488": 3051, "##\u9600": 20379, "\u30f3": 642, "##\u20ac": 13517, "\u6da6": 3883, "##bat": 12671, "##\u570b": 14808, "\u89c6": 6228, "##\u5768": 14846, "old": 10404, "##ation": 8794, "##\u6269": 15867, "##\u8c8c": 19562, "2020": 8439, "\u8266": 5677, "##\u5a41": 15094, "\u6b8a": 3654, "nginx": 12576, "##\u305f\u3044": 10722, "##\u6084": 15689, "\u5b37": 2089, "##\u6715": 16362, "\u54af": 1492, "##\u8165": 18638, "cmos": 10306, "\u5277": 1202, "##hin": 13098, "##\u542e": 14479, "mmorpg": 13274, "##\u9010": 19909, "74": 8473, "##\u5e44": 15444, "71": 8459, "\u9a88": 7738, "218": 10224, "##\u5170": 14122, "##\u7ea8": 18335, "##\u5c65": 15309, "##\u873f": 19122, "##\u9e1e": 20937, "boot": 13119, "##int": 9824, "ip": 8215, "css": 8935, "\u733f": 4351, "##\u5792": 14856, "\u9e5e": 7910, "##\u7bd9": 18124, "group": 9051, "\u96ea": 7434, "##\u8e74": 19760, "\u8972": 6204, "\u836b": 5789, "\u304d\u306a": 10423, "##\u9525": 20295, "##tar": 10216, "##@": 13338, "##\u6c69": 16798, "\u9463": 7143, "##\uff3f": 21093, "\u9075": 6905, "##\u306e\u304b": 9584, "##king": 9740, "##\u8a73": 19341, "\u2299": 400, "hi": 8913, "auto": 11327, "\u6790": 3358, "\u4e34": 707, "contextlink": 11780, "\uff47": 8057, "##\u2589": 13601, "##\u8f2f": 19801, "ii": 8491, "##\u8708": 19105, "##\u5565": 14624, "\u5e97": 2421, "\u3085": 574, "##\u5909": 14964, "##\u8074": 18535, "##\u30c3\u30d5": 10023, "\u5914": 1910, "##\u655d": 16195, "##\u4e95": 13816, "\u60ca": 2661, "##\u5498": 14535, "##\u9894": 20633, "##\u9948": 20693, "##\u305f": 8856, "##\u58f2": 14956, "\u8fe4": 6828, "##\u6ef7": 17075, "\u5ce1": 2284, "\u6f31": 4038, "\u8ced": 6551, "##\u6492": 16111, "\u6548": 3126, "\u6696": 3265, "\u5bd3": 2171, "\u7130": 4195, "##\u73d0": 17456, "ted": 11398, "##\u75d8": 17633, "\u73ed": 4408, "\u6226": 2778, "##\u76ba": 17710, "\u6d3b": 3833, "\u03ba": 218, "47": 8264, "##\u8a33": 19316, "\u70b8": 4156, "\u7389": 4373, "doc": 9656, "\u620a": 2763, "##\u751f": 17552, "##\u997d": 20718, "##\u9f8c": 21039, "\u5319": 1267, "\u5f91": 2529, "project": 9284, "\u4e28": 701, "##\u9055": 19946, "\u556e": 1573, "##\u52d6": 14298, "##\u8482": 18938, "##\u8a2a": 19313, "##\u9f0b": 21015, "canmake": 13298, "##\u6fc2": 17139, "##\u63d6": 16049, "##\u779f": 17797, "apr": 9011, "\u51a4": 1096, "bbc": 8846, "so": 8968, "who": 9372, "\u898b": 6210, "\u5bb8": 2158, "island": 10262, "\u4f53": 860, "\u7a46": 4946, "##\u3092\u3053": 12335, "##\u78f2": 17896, "##\u5bb0": 15210, "##\u8bc4": 19454, "##\u5fcf": 15614, "\u6421": 3019, "\u8bbc": 6390, "##\u5aa7": 15115, "\u88f9": 6181, "##der": 8960, "055": 9659, "##\u58df": 14947, "\u58d1": 1885, "##\u7596": 17601, "##\uff11": 8939, "\u50f9": 1019, "\u8ca8": 6515, "##\u87c6": 19150, "\u5967": 1953, "!": 106, "##ions": 11137, "\u6321": 2913, "\u8eb2": 6719, "##\u718a": 17277, "##\ufe30": 21049, "\u5b97": 2134, "##\u5bb9": 15216, "30cm": 12850, "\u684c": 3430, "##\u6339": 15979, "itunes": 9041, "##\u8e7c": 19763, "bios": 9324, "\u7fb9": 5416, "\u6a90": 3592, "domain": 12168, "\u25bd": 469, "##\u5564": 14623, "##dy": 8771, "\u6c2a": 3711, "\u81be": 5616, "\u62d7": 2871, "##nts": 12585, "\u9244": 7055, "##\u5406": 14450, "##05": 8920, "##\u305d\u306e": 10372, "##\u828d": 18750, "\u505c": 977, "\u7a1a": 4928, "##ah": 9082, "##gle": 10098, "##\u5f59": 15556, "\u5c34": 2219, "##\u9a87": 20794, "\u5987": 1967, "##\u8fe9": 19888, "\u748b": 4464, "\u9aa4": 7752, "##\u8b19": 19397, "##\u6448": 16089, "##\u8dc4": 19703, "##\u4f58": 13921, "\u77fd": 4769, "##as": 8576, "\u76db": 4670, "##\u52b9": 14287, "##\u96bb": 20464, "\u5f62": 2501, "\u6c41": 3723, "##\u30a4": 9509, "##\u59ae": 15041, "##rc": 10227, "##\u8a18": 19307, "\u8695": 6014, "tag": 8801, "##\u57e4": 14877, "edition": 10621, "##\u8cfa": 19610, "##\u5c44": 15289, "qq": 8186, "##77": 8959, "\u571c": 1758, "\u9aef": 7774, "##at": 8488, "\u8b77": 6362, "gb": 9468, "\u6f5e": 4053, "\u5bae": 2152, "\u9509": 7225, "##gen": 10152, "camera": 11519, "1893": 12927, "##\u753b": 17571, "##\u8fb0": 19858, "\u306a": 557, "\u5bc6": 2166, "##ners": 12550, "##\u572d": 14821, "dr": 8647, "##\u7440": 17495, "##\u7ec3": 18355, "##\u6655": 16295, "\u6cae": 3775, "\u82df": 5732, "\u8be9": 6424, "##star": 10297, "##mond": 11423, "1899": 11886, "##\u75d4": 17631, "\u6cbc": 3781, "##\u521b": 14215, "\u8be3": 6419, "##\u7977": 17933, "\u8d37": 6587, "##\u65fb": 16258, "\u79c1": 4900, "##\u523a": 14230, "\u80dc": 5526, "499": 9927, "##\u6b38": 16675, "\u965e": 7365, "\u00b9": 186, "##\u55dc": 14685, "\u9488": 7151, "##\u5f65": 15560, "\u6b6a": 3639, "x4": 12124, "\u80e1": 5529, "##\u8722": 19116, "[unused94]": 94, "##\u82e1": 18790, "##\u7726": 17755, "##\u6821": 16470, "##\u6c21": 16761, "##\u88dd": 19229, "|": 170, "\u8c1b": 6465, "cl": 12847, "##;": 13333, "\u7407": 4416, "javascript": 8561, "\u9577": 7269, "at": 8243, "\uff41": 8051, "\u96c6": 7415, "right": 10378, "##\u68d8": 16532, "##\u6d6a": 16914, "##\u8be7": 19480, "\u9996": 7674, "##\u5934": 14985, "##\u9801": 20571, "\u96cc": 7419, "##\u96a8": 20458, "6a": 11692, "\u5b8c": 2130, "\u5ca1": 2271, "501": 11884, "##\u9986": 20724, "\u72ce": 4315, "##data": 11792, "##\u6bba": 16726, "##\u51f3": 14192, "\u62ef": 2889, "162": 9565, "##\u8431": 18915, "\u9611": 7332, "\u8907": 6185, "\u8f38": 6745, "\u701b": 4109, "\u8fd0": 6817, "##pro": 10538, "\u5e1d": 2370, "\u7eee": 5331, "358": 11429, "\u6355": 2936, "\u76f9": 4686, "\u8073": 5477, "\u307e\u3059": 11105, "##\u74f4": 17542, "##\u9189": 20061, "##\u7e94": 18326, "##\u5811": 14890, "##\u816e": 18643, "##\u4e16": 13743, "\u51b6": 1106, "##\u60da": 15723, "\u5349": 1287, "##\u8335": 18819, "##\u90e2": 20009, "##ude": 11997, "\u7db8": 5209, "\u84c9": 5900, "pepper": 11861, "##\u592f": 14983, "##\u4edf": 13863, "##\u9607": 20384, "##bia": 12596, "00\u33a1": 9506, "address": 13093, "\u871a": 6056, "\u8d77": 6629, "##\u7566": 17584, "##\u92c5": 20137, "\u90b5": 6939, "\u2030": 344, "\u6fa1": 4074, "##san": 10978, "3": 124, "##\u914a": 20035, "\u6d38": 3831, "##\u6e80": 17027, "\u606a": 2618, "\u73c5": 4393, "##\u78e1": 17892, "##\u9670": 20431, "##\u52be": 14288, "##\u60df": 15725, "##\u6f32": 17096, "##\u8adc": 19375, "##hn": 11781, "\u7f1a": 5359, "year": 9299, "##ious": 11737, "+": 116, "##\u03b3": 13382, "##\u7d66": 18240, "\u6151": 2709, "##\u6e34": 17008, "##\u7629": 17666, "##\u5fbd": 15608, "##\u67cf": 16434, "\u5f26": 2478, "\u973e": 7467, "ces": 9818, "##\u8277": 18741, "##\u62e1": 15935, "##\u62ce": 15922, "mega": 12908, "##\u716e": 17272, "\u5d69": 2319, "100": 8135, "\u9ea9": 7932, "\u5530": 1547, "1989": 8528, "\u8bb9": 6388, "uc": 9955, "\u636e": 2945, "##\u654d": 16185, "##\u71c4": 17292, "##\u5950": 14999, "##\u80fd": 18600, "\u8000": 5438, "gre": 10771, "##\u798d": 17941, "##\u7af9": 18058, "##\u7389": 17430, "kitchen": 11808, "##\u5f1f": 15532, "468": 12944, "\u64a9": 3061, "##\u6059": 15667, "##\u6ea5": 17038, "\u612b": 2701, "\u611f": 2697, "\u65a4": 3165, "##\u77db": 17814, "##\u81bb": 18671, "\u8839": 6115, "lofter": 8117, "##\u8d77": 19686, "wordpress": 8627, "mpv": 10259, "##\u4e9b": 13820, "##\u5171": 14123, "##\u6c79": 16804, "705": 10595, "\u5b38": 2090, "\u5242": 1177, "\u7779": 4726, "qualcomm": 13264, "\u751c": 4494, "\u8133": 5566, "##sd": 10117, "##\u9b77": 20856, "##\u60f9": 15742, "\u8f84": 6773, "##cast": 13020, "\u2550": 438, "##\u5a4a": 15097, "##\u954d": 20312, "\u95fa": 7318, "##abc": 12072, "##\u9084": 19974, "##\u7736": 17759, "##\u62bd": 15910, "\u5ac2": 2064, "##\u532f": 14331, "##\u78ca": 17887, "\u9614": 7333, "\u9b4d": 7793, "374": 11948, "40": 8164, "##\u865f": 19055, "##posted": 12717, "appqq": 11898, "\u5f46": 2491, "\u6d6c": 3858, "\u25b2topsep": 10625, "\uff65": 8085, "##ll": 8390, "dv": 12372, "##\u7faf": 18470, "\u9ce5": 7852, "##\u5958": 15005, "\u5f70": 2511, "\u65b7": 3174, "\u8c04": 6445, "for": 8330, "\u515a": 1054, "##ular": 10764, "\u5a29": 2030, "\u6697": 3266, "688": 10898, "##\u5386": 14382, "##\u868a": 19068, "\u8f9c": 6790, "##\u7df9": 18288, "##\uff3d": 21091, "\u5811": 1833, "\u043c": 244, "##\u83a0": 18864, "##\u00d7": 9569, "\u7fdf": 5427, "\u5622": 1662, "##\u71e6": 17304, "387": 12716, "\u3125": 663, "##\u9452": 20199, "397": 12591, "\u8a71": 6282, "##\u53c3": 14404, "##\u9102": 20021, "##\u8ba4": 19428, "##ling": 9426, "royal": 11019, "##\u6a90": 16649, "##\u89f8": 19297, "20mm": 12714, "513": 13310, "##\u909d": 19984, "epson": 12735, "##\u7a0b": 17980, "##\u914d": 20038, "vim": 11922, "##\u8dfa": 19724, "##\u7656": 17676, "##\u8e49": 19746, "\u5141": 1038, "\u5835": 1843, "##\u6396": 16019, "##\u7791": 17793, "##\u95d6": 20357, "\u70eb": 4176, "\u55c5": 1618, "vsa": 10920, "##013": 11335, "##\u0437": 13408, "\u2460": 405, "##ny": 8680, "##\u6631": 16279, "\u631b": 2908, "##\u8568": 18995, "##m": 8175, "\u7015": 4106, "\u6293": 2831, "\u684e": 3431, "\u7de3": 5225, "\u96c1": 7412, "br": 8575, "pin": 11328, "1967": 9128, "##\u624e": 15856, "416": 12453, "##\u71ed": 17306, "##\u6a61": 16640, "\u305f": 551, "##\u94ee": 20266, "\u690e": 3491, "\u8599": 5954, "##\u81d3": 18682, "\u762b": 4611, "##\u6452": 16091, "##\u6734": 16377, "hmv": 12985, "\u8bb6": 6385, "\u9010": 6852, "##\u6fa1": 17131, "[unused85]": 85, "##\u7363": 17416, "\u52b4": 1228, "384": 12344, "##\u820a": 18705, "1995": 8396, "\u98f2": 7614, "##\u769a": 17705, "##\u568f": 14761, "\u3014": 526, "\u594e": 1940, "\u67e5": 3389, "\u3066\u304d\u3061\u3083\u3044\u307e\u3059": 12136, "##\u5b09": 15137, "\u537b": 1320, "##tone": 11902, "yang": 12086, "##\u695a": 16561, "##\u7b90": 18104, "##\u5b54": 15153, "890": 12075, "\u949e": 7163, "\u86d9": 6032, "##\u62ff": 15954, "mhz": 12747, "\u60a0": 2641, "\u9ec3": 7941, "bit": 10425, "##\u629e": 15896, "##\u8c17": 19518, "\u1d58": 336, "\u62d6": 2870, "##\u7ed3": 18367, "##\u8b93": 19423, "swift": 10081, "\u63a5": 2970, "##370": 13121, "##\u3226": 13725, "##\u573e": 14826, "##\u5885": 14920, "##\u88ab": 19215, "##\u9cf3": 20911, "##\u814e": 18632, "tab": 10476, "\u8363": 5783, "##\u9298": 20128, "##\u782d": 17842, "##cp": 11057, "##\u7da2": 18257, "\u6687": 3259, "\u778c": 4734, "314": 11725, "cma": 12398, "\u94b0": 7177, "##side": 11756, "\u8d4b": 6602, "##\u4e9c": 13821, "##\u8768": 19134, "\u6625": 3217, "\u7ec6": 5301, "moto": 10429, "6s": 9590, "seo": 8475, "##\u7601": 17653, "##\u54e7": 14579, "star": 9012, "say": 10114, "##\u6249": 15853, "##\u9318": 20146, "\u00b2": 182, "\u7eca": 5304, "\u5e9e": 2425, "\u949c": 7161, "photos": 9999, "##row": 10570, "##\u96f9": 20498, "cto": 12633, "##\u5bb3": 15211, "##\u263c": 13623, "##\u629b": 15894, "##skip": 12724, "\u55e6": 1634, "\u7785": 4731, "vol": 9218, "##\u870a": 19106, "\u85dd": 5971, "amana": 12406, "##\u51cb": 14175, "##\u6d9f": 16935, "##\u8d4a": 19658, "##\u304b\u3082": 12984, "\u9663": 7369, "##\u8f97": 19843, "\u5049": 971, "\u50be": 1005, "##\u5e0c": 15418, "##\u7e7d": 18320, "\u6e8f": 3974, "\u82b9": 5713, "##\u4fe8": 13986, "html": 8304, "386": 12303, "item": 9279, "\u5ea0": 2427, "\u81c6": 5621, "coach": 10784, "\u8093": 5493, "\u5b83": 2124, "safari": 8580, "gaming": 12444, "\u693d": 3498, "##\u5374": 14373, "##\u5e27": 15430, "##\u81bf": 18674, "\u6bc2": 3674, "\u6876": 3446, "##oc": 9450, "##\u853d": 18986, "\u0259": 198, "##\u8f6e": 19819, "te": 8282, "\u306a\u306e\u3066": 10925, "\u55bd": 1617, "\u5553": 1559, "##\u6d4f": 16903, "##\u5bfb": 15249, "##\u62ee": 15945, "311": 10256, "\u8c12": 6457, "##\u6bb7": 16725, "##\u6bc5": 16732, "limited": 10424, "##\u958f": 20333, "##\u304d": 8816, "##\u3061\u306f": 12951, "profile": 11675, "voice": 11258, "3ds": 11755, "##\u2461": 13557, "##\u9e6d": 20972, "\u840c": 5846, "##\u91ca": 20082, "inparadise": 12484, "123456": 10644, "\u8b39": 6346, "##ils": 12223, "\u626d": 2814, "##\u7981": 17938, "mozilla": 11579, "##\u8449": 18921, "##\u97e7": 20562, "\u1168": 310, "\u96ef": 7435, "##\u5664": 14746, "\u5983": 1964, "##\u57c2": 14868, "##\u73a9": 17438, "##rite": 11366, "york": 9507, "real": 10153, "##du": 11202, "##\u5331": 14332, "##\u4f09": 13879, "##\u8ba8": 19431, "##\u500b": 14000, "\u72e1": 4322, "67": 8369, "\u5edf": 2448, "##\u7c89": 18163, "\u5766": 1788,
[...]
